unsigned char motor_ff_controller_int8_io_tflite[] = {
  0x1c, 0x00, 0x00, 0x00, 0x54, 0x46, 0x4c, 0x33, 0x14, 0x00, 0x20, 0x00,
  0x1c, 0x00, 0x18, 0x00, 0x14, 0x00, 0x10, 0x00, 0x0c, 0x00, 0x00, 0x00,
  0x08, 0x00, 0x04, 0x00, 0x14, 0x00, 0x00, 0x00, 0x1c, 0x00, 0x00, 0x00,
  0x98, 0x00, 0x00, 0x00, 0xf0, 0x00, 0x00, 0x00, 0xe4, 0x1d, 0x00, 0x00,
  0xf4, 0x1d, 0x00, 0x00, 0x30, 0x35, 0x00, 0x00, 0x03, 0x00, 0x00, 0x00,
  0x01, 0x00, 0x00, 0x00, 0x10, 0x00, 0x00, 0x00, 0x00, 0x00, 0x0a, 0x00,
  0x10, 0x00, 0x0c, 0x00, 0x08, 0x00, 0x04, 0x00, 0x0a, 0x00, 0x00, 0x00,
  0x0c, 0x00, 0x00, 0x00, 0x1c, 0x00, 0x00, 0x00, 0x3c, 0x00, 0x00, 0x00,
  0x0f, 0x00, 0x00, 0x00, 0x73, 0x65, 0x72, 0x76, 0x69, 0x6e, 0x67, 0x5f,
  0x64, 0x65, 0x66, 0x61, 0x75, 0x6c, 0x74, 0x00, 0x01, 0x00, 0x00, 0x00,
  0x04, 0x00, 0x00, 0x00, 0x90, 0xff, 0xff, 0xff, 0x0c, 0x00, 0x00, 0x00,
  0x04, 0x00, 0x00, 0x00, 0x08, 0x00, 0x00, 0x00, 0x6f, 0x75, 0x74, 0x70,
  0x75, 0x74, 0x5f, 0x30, 0x00, 0x00, 0x00, 0x00, 0x01, 0x00, 0x00, 0x00,
  0x04, 0x00, 0x00, 0x00, 0xae, 0xe2, 0xff, 0xff, 0x04, 0x00, 0x00, 0x00,
  0x0c, 0x00, 0x00, 0x00, 0x6b, 0x65, 0x72, 0x61, 0x73, 0x5f, 0x74, 0x65,
  0x6e, 0x73, 0x6f, 0x72, 0x00, 0x00, 0x00, 0x00, 0x02, 0x00, 0x00, 0x00,
  0x34, 0x00, 0x00, 0x00, 0x04, 0x00, 0x00, 0x00, 0xdc, 0xff, 0xff, 0xff,
  0x0f, 0x00, 0x00, 0x00, 0x04, 0x00, 0x00, 0x00, 0x13, 0x00, 0x00, 0x00,
  0x43, 0x4f, 0x4e, 0x56, 0x45, 0x52, 0x53, 0x49, 0x4f, 0x4e, 0x5f, 0x4d,
  0x45, 0x54, 0x41, 0x44, 0x41, 0x54, 0x41, 0x00, 0x08, 0x00, 0x0c, 0x00,
  0x08, 0x00, 0x04, 0x00, 0x08, 0x00, 0x00, 0x00, 0x0e, 0x00, 0x00, 0x00,
  0x04, 0x00, 0x00, 0x00, 0x13, 0x00, 0x00, 0x00, 0x6d, 0x69, 0x6e, 0x5f,
  0x72, 0x75, 0x6e, 0x74, 0x69, 0x6d, 0x65, 0x5f, 0x76, 0x65, 0x72, 0x73,
  0x69, 0x6f, 0x6e, 0x00, 0x10, 0x00, 0x00, 0x00, 0xf0, 0x1c, 0x00, 0x00,
  0xe8, 0x1c, 0x00, 0x00, 0xd4, 0x1c, 0x00, 0x00, 0x9c, 0x1c, 0x00, 0x00,
  0x0c, 0x1c, 0x00, 0x00, 0xfc, 0x13, 0x00, 0x00, 0xec, 0x12, 0x00, 0x00,
  0xdc, 0x02, 0x00, 0x00, 0xcc, 0x01, 0x00, 0x00, 0xbc, 0x00, 0x00, 0x00,
  0xb4, 0x00, 0x00, 0x00, 0xac, 0x00, 0x00, 0x00, 0xa4, 0x00, 0x00, 0x00,
  0x9c, 0x00, 0x00, 0x00, 0x7c, 0x00, 0x00, 0x00, 0x04, 0x00, 0x00, 0x00,
  0x6a, 0xe3, 0xff, 0xff, 0x04, 0x00, 0x00, 0x00, 0x68, 0x00, 0x00, 0x00,
  0x0c, 0x00, 0x00, 0x00, 0x08, 0x00, 0x0e, 0x00, 0x08, 0x00, 0x04, 0x00,
  0x08, 0x00, 0x00, 0x00, 0x14, 0x00, 0x00, 0x00, 0x30, 0x00, 0x00, 0x00,
  0x00, 0x00, 0x0a, 0x00, 0x0c, 0x00, 0x08, 0x00, 0x00, 0x00, 0x07, 0x00,
  0x0a, 0x00, 0x00, 0x00, 0x00, 0x00, 0x00, 0x01, 0x04, 0x00, 0x00, 0x00,
  0x01, 0x00, 0x00, 0x00, 0xeb, 0x03, 0x00, 0x00, 0x0c, 0x00, 0x18, 0x00,
  0x14, 0x00, 0x10, 0x00, 0x0c, 0x00, 0x04, 0x00, 0x0c, 0x00, 0x00, 0x00,
  0x71, 0x3e, 0x20, 0x6b, 0xd0, 0x1c, 0x95, 0xe7, 0x02, 0x00, 0x00, 0x00,
  0x02, 0x00, 0x00, 0x00, 0x04, 0x00, 0x00, 0x00, 0x06, 0x00, 0x00, 0x00,
  0x32, 0x2e, 0x32, 0x31, 0x2e, 0x30, 0x00, 0x00, 0xde, 0xe3, 0xff, 0xff,
  0x04, 0x00, 0x00, 0x00, 0x10, 0x00, 0x00, 0x00, 0x31, 0x2e, 0x31, 0x34,
  0x2e, 0x30, 0x00, 0x00, 0x00, 0x00, 0x00, 0x00, 0x00, 0x00, 0x00, 0x00,
  0x64, 0xe3, 0xff, 0xff, 0x68, 0xe3, 0xff, 0xff, 0x6c, 0xe3, 0xff, 0xff,
  0x70, 0xe3, 0xff, 0xff, 0x0a, 0xe4, 0xff, 0xff, 0x04, 0x00, 0x00, 0x00,
  0x00, 0x01, 0x00, 0x00, 0xcb, 0x60, 0x67, 0x81, 0x76, 0x6f, 0x1d, 0x81,
  0xdc, 0x7f, 0x83, 0x28, 0xaa, 0x83, 0x7f, 0x76, 0x17, 0xaf, 0x81, 0x8e,
  0x64, 0x12, 0xd3, 0x81, 0xd9, 0xbb, 0xff, 0x7f, 0x81, 0x2b, 0x14, 0x3c,
  0x9b, 0xa0, 0x81, 0x45, 0x81, 0xce, 0x06, 0xbe, 0xec, 0x6e, 0x81, 0x39,
  0x38, 0x08, 0xd0, 0x7f, 0x8f, 0xb0, 0x7c, 0x81, 0x7f, 0xa2, 0xa8, 0xe5,
  0x07, 0x81, 0x51, 0x1a, 0x81, 0x91, 0xba, 0x46, 0x78, 0x65, 0x1d, 0x81,
  0x81, 0x97, 0x43, 0xc2, 0x27, 0x7f, 0xbd, 0x29, 0xbf, 0x81, 0x12, 0xc4,
  0xe0, 0x1f, 0xc7, 0x81, 0x43, 0x7f, 0xa5, 0xe9, 0x54, 0x81, 0x58, 0xe6,
  0x33, 0x2a, 0x1a, 0x81, 0xe2, 0x81, 0xdc, 0xd7, 0x2c, 0xdb, 0x81, 0xad,
  0xbe, 0x81, 0x8f, 0x09, 0xd8, 0x7f, 0x7e, 0xd1, 0x27, 0x50, 0x48, 0x81,
  0xf2, 0x7f, 0x00, 0x94, 0x7f, 0xb5, 0xc7, 0xd6, 0x04, 0x83, 0x7f, 0xcb,
  0x03, 0x00, 0xe6, 0x81, 0x23, 0xa2, 0x28, 0x7f, 0x81, 0xdb, 0x22, 0x8a,
  0x9c, 0x81, 0x1f, 0xb1, 0x7f, 0xaf, 0x1a, 0x41, 0x8e, 0x16, 0x7f, 0x55,
  0xeb, 0x45, 0x3c, 0x81, 0x7f, 0xe4, 0x3d, 0x28, 0x02, 0xc7, 0x0b, 0x81,
  0x7f, 0x82, 0xa2, 0x4f, 0x24, 0x95, 0x00, 0x81, 0x7f, 0xe5, 0xd6, 0xa5,
  0xd4, 0xfb, 0x81, 0xdc, 0x81, 0x93, 0xdb, 0x32, 0x81, 0x15, 0x23, 0x48,
  0xd3, 0x81, 0xc8, 0x17, 0x1b, 0x47, 0x81, 0x27, 0x6d, 0xd2, 0xa8, 0x7f,
  0x62, 0x03, 0x81, 0x92, 0xb9, 0x90, 0xc1, 0x81, 0x3d, 0x81, 0xd9, 0x54,
  0x81, 0x5e, 0x4f, 0xc5, 0x61, 0x7f, 0x4f, 0x51, 0x36, 0x15, 0x7f, 0x0c,
  0x5e, 0x7f, 0x8c, 0xa6, 0xf5, 0x7f, 0x84, 0xf8, 0xdf, 0x67, 0x81, 0xf9,
  0x7f, 0xe4, 0x0d, 0x53, 0x84, 0x7f, 0x5a, 0xa4, 0x71, 0xef, 0x81, 0xfa,
  0x01, 0x81, 0x06, 0x7b, 0xa7, 0x4d, 0x7f, 0x8f, 0x16, 0xe5, 0xff, 0xff,
  0x04, 0x00, 0x00, 0x00, 0x00, 0x01, 0x00, 0x00, 0xfd, 0xff, 0xff, 0xff,
  0xf0, 0xff, 0xff, 0xff, 0xbd, 0xff, 0xff, 0xff, 0x1b, 0x00, 0x00, 0x00,
  0x00, 0x00, 0x00, 0x00, 0x02, 0x00, 0x00, 0x00, 0x2e, 0x00, 0x00, 0x00,
  0x02, 0x00, 0x00, 0x00, 0x00, 0x00, 0x00, 0x00, 0x00, 0x00, 0x00, 0x00,
  0x14, 0x00, 0x00, 0x00, 0x38, 0x00, 0x00, 0x00, 0x0d, 0x00, 0x00, 0x00,
  0x1a, 0x00, 0x00, 0x00, 0x4b, 0x00, 0x00, 0x00, 0xfe, 0xff, 0xff, 0xff,
  0xc0, 0xff, 0xff, 0xff, 0xfd, 0xff, 0xff, 0xff, 0x05, 0x00, 0x00, 0x00,
  0x00, 0x00, 0x00, 0x00, 0xfe, 0xff, 0xff, 0xff, 0xf6, 0xff, 0xff, 0xff,
  0xe7, 0xff, 0xff, 0xff, 0x26, 0x00, 0x00, 0x00, 0x00, 0x00, 0x00, 0x00,
  0xff, 0xff, 0xff, 0xff, 0x00, 0x00, 0x00, 0x00, 0xf3, 0xff, 0xff, 0xff,
  0xb7, 0xff, 0xff, 0xff, 0xcd, 0xff, 0xff, 0xff, 0x1c, 0x00, 0x00, 0x00,
  0x33, 0x00, 0x00, 0x00, 0xfa, 0xff, 0xff, 0xff, 0x0b, 0x00, 0x00, 0x00,
  0x00, 0x00, 0x00, 0x00, 0x00, 0x00, 0x00, 0x00, 0x35, 0x00, 0x00, 0x00,
  0x21, 0x00, 0x00, 0x00, 0x23, 0x00, 0x00, 0x00, 0x3b, 0x00, 0x00, 0x00,
  0x00, 0x00, 0x00, 0x00, 0xe4, 0xff, 0xff, 0xff, 0x00, 0x00, 0x00, 0x00,
  0x01, 0x00, 0x00, 0x00, 0x00, 0x00, 0x00, 0x00, 0x00, 0x00, 0x00, 0x00,
  0x10, 0x00, 0x00, 0x00, 0x00, 0x00, 0x00, 0x00, 0x43, 0x00, 0x00, 0x00,
  0x26, 0x00, 0x00, 0x00, 0x0c, 0x00, 0x00, 0x00, 0x00, 0x00, 0x00, 0x00,
  0x0e, 0x00, 0x00, 0x00, 0xb5, 0xff, 0xff, 0xff, 0xdf, 0xff, 0xff, 0xff,
  0xfe, 0xff, 0xff, 0xff, 0x47, 0x00, 0x00, 0x00, 0x31, 0x00, 0x00, 0x00,
  0x2a, 0x00, 0x00, 0x00, 0x2c, 0x00, 0x00, 0x00, 0xe9, 0xff, 0xff, 0xff,
  0x0a, 0x00, 0x00, 0x00, 0xcd, 0x00, 0x00, 0x00, 0xf4, 0xff, 0xff, 0xff,
  0x22, 0xe6, 0xff, 0xff, 0x04, 0x00, 0x00, 0x00, 0x00, 0x10, 0x00, 0x00,
  0x0f, 0xd5, 0xf2, 0xfa, 0xf2, 0x16, 0x28, 0x1f, 0x27, 0x02, 0x06, 0x24,
  0x25, 0x26, 0x1e, 0x3c, 0xf3, 0xc4, 0xd7, 0x20, 0x2b, 0x21, 0x03, 0xea,
  0xf5, 0x06, 0xed, 0x11, 0x15, 0xe7, 0x3c, 0x5c, 0xdb, 0x36, 0xc9, 0xed,
  0x0c, 0xc2, 0x04, 0xd2, 0x16, 0xa5, 0x2e, 0x2d, 0x04, 0xfd, 0x1d, 0x32,
  0x7f, 0xd6, 0xc3, 0xf6, 0xd4, 0x1f, 0xfb, 0xe2, 0x03, 0x3b, 0x01, 0x2a,
  0xe7, 0xe5, 0xb5, 0xff, 0x2a, 0xd2, 0xa5, 0x47, 0x5c, 0xcd, 0x42, 0x38,
  0xd3, 0xd4, 0x52, 0x0c, 0xb1, 0x3f, 0x0f, 0xc1, 0xec, 0x48, 0x20, 0xd1,
  0xcc, 0xb0, 0x66, 0xe8, 0xc3, 0xb7, 0x15, 0xc6, 0x0c, 0x81, 0x48, 0xf6,
  0x22, 0x29, 0x2e, 0x12, 0xff, 0x2b, 0xdb, 0xc3, 0xf7, 0x54, 0xdc, 0x06,
  0xab, 0xc2, 0x3c, 0xd8, 0x62, 0x01, 0x54, 0xfd, 0x05, 0xcf, 0xff, 0xe4,
  0x55, 0xcd, 0x36, 0x56, 0xd9, 0xd7, 0xfd, 0xc9, 0xea, 0x16, 0xd2, 0xd5,
  0x3f, 0x1e, 0x38, 0xbd, 0x12, 0xf7, 0xc9, 0x18, 0x25, 0x31, 0xf7, 0xf5,
  0xf3, 0x00, 0x2b, 0x22, 0x10, 0xc7, 0xf2, 0x05, 0xd8, 0xdf, 0x06, 0x05,
  0xf1, 0xf8, 0xb4, 0xe8, 0x23, 0xce, 0x06, 0xc1, 0x1d, 0x2f, 0x26, 0xd6,
  0x1c, 0x08, 0xf8, 0x11, 0x08, 0x30, 0xc9, 0xf6, 0x84, 0xeb, 0x39, 0x3a,
  0x1a, 0xf4, 0x36, 0xe5, 0xcd, 0x81, 0x24, 0xca, 0xd2, 0xfc, 0x34, 0xd8,
  0x26, 0xd9, 0xfa, 0xbf, 0xf9, 0xea, 0x25, 0xf3, 0x38, 0xf2, 0x2c, 0x0b,
  0xe1, 0x04, 0xd6, 0xf4, 0xc5, 0xda, 0xd6, 0xec, 0xd3, 0x30, 0xf8, 0x07,
  0xe6, 0x10, 0x08, 0x11, 0x15, 0xdc, 0x2f, 0xfa, 0x15, 0xf9, 0x35, 0x1c,
  0xd1, 0xf4, 0xc8, 0x2a, 0xf6, 0xce, 0x3b, 0xe3, 0x15, 0x27, 0x10, 0xee,
  0x7f, 0xf0, 0x02, 0xf9, 0xd2, 0xfa, 0x2d, 0xef, 0x10, 0x00, 0x29, 0xd7,
  0x26, 0xff, 0xdb, 0xe0, 0xd2, 0x09, 0xe9, 0x2b, 0xfa, 0xed, 0x0d, 0x0c,
  0x00, 0xb4, 0x3e, 0x26, 0x1c, 0xd8, 0x4c, 0xc0, 0xcf, 0x4a, 0x4d, 0xc7,
  0x23, 0xde, 0x3c, 0x4f, 0xad, 0xc2, 0x0f, 0xfd, 0xc1, 0xdc, 0x07, 0x11,
  0x08, 0xdb, 0x3b, 0xfd, 0xd6, 0x51, 0xe2, 0x39, 0xed, 0xfd, 0xde, 0xc0,
  0x44, 0xff, 0x05, 0x2f, 0x42, 0x30, 0x9c, 0xed, 0x0e, 0xda, 0xc6, 0xf0,
  0x38, 0x27, 0x79, 0x4f, 0xbb, 0xf7, 0x7f, 0x12, 0x91, 0x0d, 0x19, 0x1d,
  0x31, 0x3b, 0x01, 0x24, 0x9d, 0x38, 0x50, 0x9e, 0x5f, 0xdf, 0x03, 0x26,
  0xa0, 0xd5, 0x2f, 0xdb, 0xd6, 0xc8, 0xda, 0x42, 0xf7, 0xb8, 0xe1, 0xb4,
  0x9a, 0xd9, 0x81, 0x21, 0xc2, 0xe6, 0xa5, 0x17, 0xe1, 0x5d, 0xf2, 0x27,
  0xa2, 0x50, 0xff, 0x2d, 0x01, 0x01, 0x35, 0x18, 0x06, 0xaf, 0xd2, 0x32,
  0x24, 0xa5, 0x29, 0x1f, 0x07, 0xba, 0x45, 0xeb, 0xfa, 0xae, 0x6c, 0xd5,
  0xfc, 0x92, 0x19, 0x4c, 0x51, 0xf6, 0x1d, 0x97, 0x93, 0xfa, 0x68, 0xd6,
  0xc4, 0x40, 0xdc, 0x3d, 0x25, 0xdf, 0x81, 0xd3, 0x94, 0x50, 0xd5, 0xb3,
  0xb9, 0x1f, 0xa5, 0xc0, 0x54, 0xf9, 0xdf, 0xa6, 0x02, 0xb1, 0xd8, 0x1d,
  0xff, 0x0e, 0xe6, 0x46, 0x6c, 0xac, 0xdd, 0x59, 0x2f, 0xa0, 0x20, 0xd5,
  0x22, 0x33, 0x60, 0xfb, 0x75, 0xde, 0x9d, 0x8e, 0xb8, 0x68, 0xca, 0xfc,
  0x81, 0x82, 0xd6, 0xc5, 0xce, 0xf4, 0x28, 0x12, 0xc4, 0xa6, 0x16, 0xd0,
  0x03, 0x4f, 0x3d, 0xa6, 0xaa, 0xef, 0xa9, 0x39, 0xd3, 0x0d, 0xc9, 0x46,
  0xec, 0x35, 0xa6, 0xb8, 0x0d, 0x3c, 0x67, 0x94, 0xe4, 0x8e, 0x66, 0xd2,
  0xfc, 0x07, 0x4c, 0xbe, 0x08, 0x02, 0x1a, 0xcd, 0xc4, 0x49, 0x2b, 0xb3,
  0xa1, 0xd9, 0x2b, 0xce, 0xb7, 0x3a, 0x2d, 0x08, 0x15, 0x81, 0x57, 0xd1,
  0x0a, 0xb5, 0x92, 0x34, 0x92, 0x36, 0x00, 0x9a, 0x30, 0xec, 0x14, 0x20,
  0x40, 0xf8, 0x21, 0x16, 0xf8, 0x33, 0x07, 0x1d, 0x16, 0xff, 0x3b, 0xf3,
  0x25, 0x06, 0xc8, 0xf4, 0xf2, 0x0d, 0xf3, 0x10, 0x0d, 0x29, 0xf0, 0x2b,
  0xf6, 0x22, 0xd1, 0x00, 0xc1, 0xd9, 0x21, 0xce, 0x37, 0xcc, 0x25, 0xea,
  0x3b, 0x44, 0xee, 0x02, 0x1f, 0x31, 0xb3, 0xf7, 0x81, 0xcd, 0x10, 0xcf,
  0x1e, 0xc0, 0x2d, 0x2c, 0xe4, 0xfb, 0xdd, 0xb8, 0x23, 0xe5, 0x05, 0x07,
  0x1a, 0x0a, 0x1a, 0x19, 0x1f, 0xcf, 0xfa, 0xf4, 0x17, 0xfd, 0xec, 0xf2,
  0xf7, 0x01, 0xd8, 0x20, 0x0c, 0xff, 0x1c, 0x1c, 0xe8, 0x33, 0xe6, 0x02,
  0x21, 0xe1, 0xec, 0x22, 0xf4, 0x3b, 0xea, 0xd4, 0xf2, 0xec, 0xe8, 0x06,
  0xd2, 0xeb, 0xdf, 0xe3, 0x0f, 0xeb, 0x01, 0xf0, 0x17, 0x00, 0xfd, 0xef,
  0x0f, 0xd5, 0x1f, 0x0f, 0x1d, 0xff, 0x0c, 0xec, 0x13, 0x17, 0xc6, 0x16,
  0xe6, 0x13, 0x81, 0xec, 0x20, 0x54, 0xf8, 0x5d, 0xcb, 0x9f, 0xc5, 0x26,
  0x06, 0x1f, 0x48, 0x1d, 0x35, 0x43, 0xd5, 0x51, 0xe6, 0x1f, 0x3c, 0xac,
  0xdb, 0x7f, 0xd0, 0x20, 0x66, 0x5c, 0xc0, 0x4c, 0xdf, 0xd7, 0x2c, 0x9e,
  0x27, 0x15, 0xea, 0xb7, 0x46, 0x04, 0x04, 0xa4, 0x47, 0xae, 0xad, 0xbd,
  0x56, 0x98, 0x88, 0xb9, 0x04, 0xa8, 0x16, 0xee, 0xb5, 0xf9, 0x20, 0x0e,
  0xfc, 0x19, 0x4b, 0xf3, 0x9c, 0xab, 0xf5, 0xcd, 0xf8, 0xe7, 0xe7, 0x3c,
  0x36, 0x15, 0xc0, 0xb5, 0xe3, 0x35, 0x4d, 0x09, 0xc5, 0xb1, 0xf9, 0x05,
  0xee, 0x51, 0x3c, 0xbb, 0xe5, 0x29, 0xfb, 0xf3, 0xbf, 0xc0, 0x56, 0x2a,
  0xd7, 0xb6, 0xfa, 0x81, 0xe5, 0xa2, 0x47, 0xf5, 0x27, 0xe3, 0x29, 0x09,
  0x3e, 0x3e, 0x0a, 0x9a, 0x4f, 0x3a, 0x1d, 0x0e, 0xdf, 0x1f, 0xa9, 0x09,
  0xef, 0x34, 0x07, 0x11, 0xf9, 0x33, 0x42, 0xec, 0xdd, 0xa2, 0x18, 0xf1,
  0x58, 0x58, 0x8f, 0x94, 0x39, 0x04, 0x18, 0x0d, 0xc4, 0x6e, 0x26, 0x0f,
  0xde, 0x1f, 0x2f, 0x1b, 0xcb, 0xfa, 0xf5, 0xd9, 0xdb, 0x62, 0xdc, 0x62,
  0x53, 0x9b, 0x70, 0x43, 0x99, 0xf0, 0x4e, 0x47, 0x60, 0xfc, 0x41, 0xbb,
  0x2d, 0x65, 0x29, 0xc7, 0x08, 0x3f, 0xa7, 0x43, 0x5c, 0x70, 0x2c, 0x44,
  0x38, 0xc4, 0x68, 0xb4, 0xa9, 0xb9, 0xcf, 0x10, 0x41, 0x3d, 0x16, 0x5f,
  0x97, 0xe9, 0x81, 0x64, 0xb1, 0x3d, 0xc7, 0x48, 0xc0, 0x16, 0x49, 0xf8,
  0xfb, 0x4d, 0xb3, 0xd6, 0xd7, 0x7b, 0x01, 0x00, 0x61, 0xe4, 0xc2, 0xb2,
  0x15, 0xce, 0x2a, 0x7f, 0x42, 0xb2, 0x07, 0xc8, 0xae, 0x10, 0x26, 0x35,
  0x25, 0x2f, 0x9d, 0x01, 0xf8, 0x5d, 0x5d, 0xd7, 0x56, 0x39, 0xf6, 0x69,
  0xc4, 0x20, 0x53, 0xde, 0xfa, 0x50, 0x51, 0xba, 0x0c, 0x4d, 0x2e, 0xec,
  0xb7, 0xfa, 0xcb, 0x0e, 0xa0, 0x60, 0xf4, 0xec, 0x9a, 0x0e, 0xa5, 0x48,
  0xc7, 0x3e, 0xe7, 0xb6, 0x0f, 0xde, 0x15, 0x0f, 0x41, 0x7f, 0xe2, 0xb3,
  0x56, 0x13, 0x96, 0xbf, 0xf6, 0x2b, 0x16, 0x1e, 0x0a, 0xbb, 0xc4, 0xfa,
  0xdd, 0x24, 0x0d, 0x60, 0xc8, 0x13, 0xc2, 0x3f, 0xac, 0x44, 0xdb, 0xbc,
  0x4f, 0xe2, 0xd8, 0x84, 0xbc, 0xc1, 0xf5, 0xe9, 0x54, 0xc6, 0xca, 0xb3,
  0x81, 0x37, 0x41, 0xcc, 0xe9, 0x39, 0x34, 0xa8, 0x28, 0x7f, 0xdb, 0xea,
  0x15, 0x06, 0xce, 0xe9, 0x74, 0xe6, 0xac, 0xa3, 0x3a, 0xc7, 0x01, 0x44,
  0x5e, 0x9b, 0xb7, 0x6c, 0xf0, 0x5e, 0x9e, 0x90, 0xdf, 0xbf, 0x47, 0xe8,
  0xd4, 0x3e, 0x9b, 0x8f, 0xa2, 0x81, 0xfb, 0x4b, 0x26, 0xb5, 0x4a, 0xe6,
  0x21, 0xfd, 0xe9, 0x02, 0x95, 0xb3, 0x51, 0x5a, 0x8c, 0x91, 0x10, 0xd8,
  0x43, 0x0c, 0x39, 0x2c, 0x85, 0x69, 0x31, 0x4c, 0x73, 0x73, 0x0d, 0x7a,
  0x1d, 0x1d, 0xe7, 0x16, 0x89, 0xdd, 0xb3, 0xfa, 0xf4, 0x66, 0x2b, 0x20,
  0x9a, 0x64, 0xdc, 0x1c, 0xf3, 0x2f, 0x65, 0xa7, 0xd6, 0x45, 0xdb, 0x56,
  0xd0, 0x49, 0x08, 0xf1, 0xdb, 0x1b, 0x2d, 0x23, 0xfc, 0x9f, 0x4c, 0x14,
  0x9c, 0x10, 0xc6, 0xe3, 0x0e, 0x81, 0x26, 0x46, 0xb2, 0x34, 0xcd, 0x92,
  0xff, 0xaf, 0xab, 0xe9, 0xf2, 0xee, 0xf7, 0x4b, 0xa8, 0xc4, 0xcb, 0x8e,
  0xde, 0xc7, 0xdf, 0xdd, 0x08, 0xed, 0x15, 0x33, 0xce, 0x11, 0x57, 0xac,
  0x68, 0x81, 0xcd, 0x8e, 0xc4, 0xe2, 0x1f, 0x10, 0x72, 0xc2, 0x1e, 0x32,
  0x60, 0xbd, 0x03, 0xe0, 0xb6, 0x62, 0x27, 0xfd, 0xce, 0x93, 0xa0, 0x2f,
  0x2e, 0x3b, 0x47, 0x78, 0xec, 0x8d, 0x3f, 0xae, 0x0c, 0xfe, 0x21, 0xe6,
  0x55, 0x6e, 0x02, 0x8d, 0x0c, 0xf8, 0x55, 0xf0, 0xb0, 0xd0, 0xb7, 0x21,
  0x3a, 0x2f, 0xe4, 0xe1, 0x25, 0x51, 0x07, 0x2e, 0x5b, 0x1e, 0x90, 0x60,
  0x0d, 0xf9, 0x00, 0xf0, 0xe6, 0xee, 0x14, 0xfb, 0x08, 0x0d, 0xe6, 0xe9,
  0xfe, 0xe9, 0xed, 0x0a, 0xf3, 0x10, 0x19, 0x0b, 0x0d, 0xef, 0x07, 0x10,
  0xfa, 0xef, 0x06, 0x0d, 0xfc, 0x0d, 0xfa, 0xf6, 0xe4, 0x16, 0x1a, 0xe9,
  0xdf, 0x16, 0xfa, 0x11, 0xfe, 0xfe, 0x1b, 0xfe, 0x13, 0x17, 0x12, 0x0a,
  0x81, 0xdd, 0xe2, 0x13, 0xdf, 0xe6, 0xfc, 0xe8, 0xf7, 0xf4, 0x08, 0xf3,
  0xfa, 0xfa, 0x23, 0x15, 0x1c, 0xcf, 0xe1, 0xfe, 0xc8, 0x9e, 0xb5, 0x81,
  0xd0, 0xbf, 0xc2, 0xd1, 0xe4, 0xc4, 0x0b, 0x51, 0x47, 0xb8, 0x29, 0x1d,
  0x44, 0x3e, 0xd8, 0xc4, 0x04, 0x49, 0x18, 0x23, 0x05, 0xbf, 0x15, 0x14,
  0xe4, 0xae, 0xda, 0x68, 0xb2, 0xb3, 0xc8, 0xef, 0xef, 0xc1, 0xe6, 0x08,
  0x1d, 0x9e, 0xde, 0x65, 0x16, 0xf3, 0xb5, 0xa1, 0x20, 0xa4, 0xdf, 0xda,
  0x48, 0xa4, 0x50, 0xad, 0x16, 0x03, 0x0b, 0x1c, 0xca, 0xf3, 0xef, 0xd7,
  0xb6, 0x37, 0xba, 0xca, 0x3d, 0x2a, 0x30, 0xb4, 0xa4, 0x51, 0x28, 0xb7,
  0x2b, 0x22, 0xc0, 0x25, 0xe1, 0x2b, 0x27, 0xc6, 0x18, 0x59, 0xb1, 0xdf,
  0xf5, 0x3a, 0xab, 0xed, 0xae, 0x81, 0x02, 0x21, 0xd7, 0x9e, 0xe3, 0x0f,
  0xdc, 0x48, 0xa0, 0x54, 0xdf, 0x56, 0xde, 0x16, 0xb2, 0xf2, 0xee, 0x22,
  0x34, 0xb0, 0xe8, 0x93, 0x58, 0x54, 0x55, 0x06, 0xea, 0x06, 0x60, 0xd0,
  0xbf, 0x92, 0xdb, 0x55, 0x26, 0x8a, 0xbf, 0xa9, 0x25, 0xc5, 0xed, 0x08,
  0xf9, 0xc4, 0x25, 0xb4, 0x09, 0x04, 0xf3, 0xc1, 0x38, 0xf1, 0x56, 0xe1,
  0xcf, 0x08, 0xce, 0x4c, 0x38, 0xb9, 0x0a, 0xbd, 0x02, 0x13, 0xb6, 0xdd,
  0x0d, 0xb7, 0x55, 0x32, 0x49, 0xd6, 0xbe, 0xd2, 0x46, 0x5e, 0x28, 0xc8,
  0xb0, 0x53, 0xf0, 0x34, 0x86, 0xa1, 0x97, 0x25, 0x81, 0xf2, 0xf8, 0x0d,
  0x94, 0xc8, 0x5c, 0x9b, 0xf6, 0xcf, 0x95, 0xdb, 0x26, 0x26, 0xac, 0xfd,
  0xd7, 0xe5, 0xc8, 0x34, 0xbd, 0x71, 0x55, 0xd8, 0x2b, 0x77, 0x11, 0x2a,
  0xba, 0x21, 0x13, 0x23, 0x41, 0xe6, 0x23, 0x24, 0x03, 0xfa, 0x81, 0xfe,
  0x07, 0xd9, 0x8a, 0xff, 0xd9, 0xc0, 0x0f, 0x34, 0xfa, 0x9c, 0xc9, 0xb3,
  0x70, 0x96, 0xd1, 0xbf, 0x06, 0xfc, 0x14, 0x4a, 0x2c, 0x71, 0xf5, 0xae,
  0xb1, 0xaa, 0xb9, 0x22, 0x94, 0x58, 0xbb, 0x30, 0xff, 0x94, 0xaf, 0x9e,
  0xd8, 0x1a, 0x25, 0xc3, 0x0b, 0xee, 0xb4, 0xae, 0xa3, 0xe1, 0x81, 0x17,
  0xa6, 0x2f, 0xb7, 0xfd, 0xa6, 0xc5, 0xb4, 0x52, 0xaa, 0xcf, 0x66, 0x45,
  0xcf, 0x2e, 0x1b, 0xd0, 0x06, 0xf9, 0x4f, 0xc5, 0x23, 0x97, 0x07, 0xf2,
  0x41, 0x6b, 0xfc, 0x99, 0x4e, 0x62, 0x0c, 0xe5, 0x17, 0x07, 0xc8, 0x0a,
  0xe5, 0x64, 0x2d, 0x35, 0xe8, 0xa8, 0x1c, 0xb1, 0xbf, 0x05, 0x37, 0x33,
  0xba, 0x1d, 0x38, 0x27, 0xa1, 0x62, 0xb0, 0x12, 0xee, 0x59, 0x2b, 0x03,
  0x3c, 0x94, 0x5b, 0x93, 0xe2, 0x61, 0x08, 0x24, 0x53, 0xd2, 0x19, 0xa6,
  0x4b, 0xdc, 0x48, 0xb7, 0xbe, 0xc8, 0x0e, 0xf4, 0xaf, 0x48, 0x3a, 0x45,
  0xf8, 0xfd, 0xe9, 0xda, 0x95, 0xe5, 0x63, 0x3a, 0xc6, 0xb6, 0xf7, 0xc7,
  0xbb, 0xd7, 0x00, 0xe4, 0x48, 0xf7, 0x81, 0x26, 0x54, 0x9a, 0xa0, 0x38,
  0xc7, 0x14, 0x9a, 0x1a, 0xd3, 0x4b, 0xc2, 0xfc, 0x38, 0x35, 0xe7, 0xf1,
  0x3d, 0xf6, 0xf9, 0x32, 0x18, 0x75, 0x00, 0xb5, 0xa8, 0xf1, 0x08, 0xf3,
  0xa9, 0xfa, 0x3b, 0x2f, 0x55, 0xbb, 0xcd, 0x2b, 0x57, 0xe4, 0x7f, 0xf4,
  0xd3, 0x41, 0x5b, 0x20, 0x0e, 0x44, 0x5f, 0xb4, 0x58, 0x1b, 0xae, 0x54,
  0x46, 0xd7, 0x53, 0xa4, 0x31, 0xce, 0x9c, 0xa7, 0x48, 0xc0, 0xc4, 0x09,
  0x41, 0xf1, 0x62, 0x1c, 0xe8, 0xbb, 0xb3, 0x48, 0x0c, 0x26, 0x04, 0xe1,
  0x1e, 0xd8, 0xf0, 0xcf, 0xb8, 0xec, 0xc5, 0x09, 0x22, 0xe5, 0x7f, 0x49,
  0x09, 0xe7, 0xeb, 0xbe, 0x31, 0x28, 0x3e, 0x27, 0xfe, 0x21, 0xdd, 0x36,
  0x03, 0xdd, 0xfb, 0xdf, 0xe3, 0x2c, 0xfc, 0x20, 0xe2, 0xd5, 0xdd, 0xc5,
  0xe7, 0x3b, 0xdf, 0x37, 0xd3, 0xef, 0xaa, 0xb8, 0xcd, 0x06, 0x0d, 0xe4,
  0x44, 0xdf, 0xe6, 0xfd, 0xce, 0x0f, 0x14, 0x16, 0x19, 0x10, 0x05, 0xdc,
  0x27, 0x03, 0xcf, 0xa7, 0xc8, 0x81, 0xbb, 0xa5, 0x2a, 0x15, 0x0d, 0x01,
  0xe2, 0xa1, 0x07, 0x68, 0x42, 0xd7, 0x3a, 0x48, 0x0d, 0x67, 0x31, 0x29,
  0xe1, 0x25, 0xc6, 0x1d, 0x12, 0xbe, 0x9a, 0xbc, 0x5f, 0xf1, 0x6f, 0xa9,
  0xf2, 0xfe, 0xbd, 0x8c, 0x25, 0xa5, 0x02, 0x8d, 0x48, 0x0c, 0x65, 0xb5,
  0x43, 0xa0, 0x3f, 0x0c, 0xbc, 0xc2, 0xa2, 0x98, 0xa1, 0x91, 0x6f, 0x4d,
  0x94, 0x40, 0xc4, 0x07, 0x78, 0xd4, 0x04, 0x0a, 0x5a, 0x2f, 0x33, 0xbd,
  0x12, 0xb8, 0x89, 0x1b, 0x8b, 0x58, 0x51, 0x3f, 0x5f, 0x7b, 0xb2, 0xaf,
  0x43, 0x03, 0xc8, 0x34, 0x40, 0x58, 0x81, 0x86, 0x0e, 0x63, 0x85, 0x3f,
  0x07, 0x70, 0xe3, 0xc1, 0xd3, 0x98, 0x75, 0xdc, 0x8d, 0xae, 0xbb, 0xf1,
  0xba, 0x0f, 0x87, 0x99, 0x75, 0xf1, 0x6c, 0xdf, 0xe1, 0x1c, 0x94, 0xb3,
  0x4f, 0x23, 0x45, 0xe0, 0x92, 0xa3, 0xb4, 0x64, 0x0a, 0x2b, 0x58, 0x67,
  0x68, 0xf0, 0x81, 0x3d, 0x2e, 0x6d, 0x8b, 0xa0, 0x9a, 0x69, 0x06, 0xed,
  0x91, 0x03, 0xe7, 0xeb, 0x06, 0xd1, 0xab, 0x1a, 0x92, 0x1f, 0x78, 0xbf,
  0x0b, 0xc9, 0x21, 0xd9, 0x41, 0x4e, 0xb9, 0xcb, 0x34, 0x04, 0xe4, 0x9d,
  0xc0, 0x72, 0xfc, 0x12, 0x8e, 0x8b, 0x06, 0x11, 0xa4, 0x19, 0xc2, 0x92,
  0x39, 0xbe, 0x4a, 0x8e, 0x0d, 0x88, 0xde, 0xaa, 0xab, 0xbd, 0x12, 0x25,
  0xf9, 0xa9, 0x1e, 0x2e, 0xbe, 0xf4, 0x0c, 0x18, 0xa2, 0xb2, 0x04, 0x17,
  0x30, 0xfb, 0xce, 0xb0, 0xd0, 0x46, 0x09, 0x05, 0x15, 0x2e, 0xe3, 0xd7,
  0x1b, 0xf7, 0x5f, 0x09, 0x9d, 0xd3, 0x4f, 0x36, 0x51, 0x0c, 0xc5, 0xcc,
  0xfb, 0x15, 0xea, 0xc4, 0x28, 0x51, 0x51, 0xbf, 0x27, 0xd1, 0x3b, 0x15,
  0x41, 0x3c, 0xef, 0xaf, 0x69, 0xce, 0xe7, 0x3b, 0x29, 0x43, 0xad, 0x14,
  0xd2, 0xb7, 0x7f, 0xf4, 0x38, 0xe7, 0x1f, 0xf9, 0x0e, 0x0d, 0xfb, 0x13,
  0xdb, 0xe4, 0xfb, 0x0f, 0xd3, 0xc8, 0xfc, 0x00, 0xfc, 0xd1, 0xfe, 0x0c,
  0xf3, 0xf2, 0xf4, 0x0c, 0xe8, 0xd4, 0xed, 0x22, 0xd5, 0x08, 0x2e, 0xc3,
  0xe8, 0xe7, 0x2a, 0xdc, 0xcc, 0x20, 0x30, 0x1a, 0xd9, 0x3d, 0xfc, 0x1c,
  0xf8, 0xec, 0x18, 0x2e, 0x81, 0x09, 0xe7, 0xdb, 0x18, 0xe1, 0xec, 0x25,
  0xc3, 0x0a, 0xd1, 0x23, 0x20, 0x1a, 0x00, 0xfd, 0xcf, 0xb6, 0xde, 0x9a,
  0x2f, 0xae, 0xa9, 0xbc, 0x5e, 0xbc, 0x39, 0x52, 0x6e, 0xa6, 0xc5, 0xb9,
  0xba, 0x99, 0xb2, 0xe0, 0x38, 0x8a, 0x15, 0x67, 0x0b, 0x72, 0x8d, 0x0d,
  0x9b, 0x3e, 0x3c, 0xdf, 0x7b, 0x4e, 0x93, 0xf6, 0x36, 0x98, 0x89, 0x3b,
  0x57, 0xc0, 0xa4, 0x69, 0x81, 0xae, 0x51, 0x68, 0x26, 0xf2, 0x79, 0x1a,
  0xb0, 0x40, 0x82, 0x1e, 0xc7, 0xd3, 0x41, 0x01, 0xcd, 0xb6, 0x86, 0x59,
  0x1e, 0x39, 0x9f, 0xcc, 0x9c, 0xd2, 0xd9, 0xcb, 0x13, 0xf5, 0x25, 0x12,
  0xa9, 0x53, 0x51, 0x5b, 0xc8, 0xab, 0x63, 0x69, 0x23, 0x94, 0x04, 0xb0,
  0xbb, 0x3b, 0x9e, 0xbd, 0xe5, 0xe4, 0x55, 0xd3, 0xd0, 0xb3, 0xca, 0xae,
  0x07, 0x58, 0xe3, 0xff, 0x40, 0x95, 0x45, 0xeb, 0xe1, 0x6a, 0xea, 0xfd,
  0x5d, 0xc8, 0xfd, 0xc5, 0xc3, 0x81, 0xb1, 0xae, 0xbb, 0xdc, 0x22, 0x20,
  0x0d, 0xb7, 0x4a, 0xf2, 0x15, 0xe8, 0xd3, 0xd7, 0x22, 0xe0, 0xfd, 0x0d,
  0xca, 0xe1, 0xcb, 0xce, 0x7f, 0x0e, 0x28, 0xd1, 0x10, 0x18, 0xcc, 0xf3,
  0x09, 0xda, 0xf9, 0x11, 0x33, 0xd9, 0xd9, 0xc9, 0xf6, 0x27, 0xdf, 0x6e,
  0xf5, 0x1a, 0x03, 0xfc, 0xca, 0x26, 0xe3, 0x1c, 0xe5, 0x09, 0x18, 0xfa,
  0x11, 0xe8, 0x21, 0xda, 0x33, 0x0b, 0xfa, 0x0a, 0xf5, 0x21, 0x0b, 0x30,
  0x5c, 0x1f, 0xf1, 0x11, 0xed, 0xec, 0xd6, 0xd2, 0xdf, 0x44, 0xf2, 0xe5,
  0xd3, 0xe0, 0x34, 0xca, 0xc0, 0x4d, 0xe7, 0xb8, 0xf6, 0xc1, 0xc7, 0xfc,
  0xdc, 0xe0, 0x45, 0xf5, 0xb5, 0xbf, 0xb1, 0xc4, 0xd5, 0x4e, 0x3c, 0xcc,
  0xb1, 0x49, 0xc1, 0xae, 0xcf, 0xd0, 0x29, 0x33, 0x64, 0xe0, 0xe8, 0xfb,
  0xe1, 0x27, 0x1a, 0xea, 0x41, 0xcd, 0x4f, 0x4e, 0x3b, 0x50, 0xf0, 0xfd,
  0x81, 0xf3, 0xc8, 0x09, 0x34, 0x62, 0x57, 0x37, 0xbe, 0x03, 0x73, 0xb1,
  0xf3, 0x58, 0xf1, 0x08, 0xf8, 0x46, 0xc0, 0xac, 0xfa, 0xe6, 0x1f, 0xaf,
  0x11, 0xde, 0x4e, 0x3d, 0xea, 0xc1, 0xdb, 0x48, 0xd0, 0xc3, 0x1a, 0x0a,
  0xe4, 0xb6, 0x0a, 0x4b, 0x31, 0xcf, 0xb4, 0x8a, 0x24, 0x32, 0xde, 0xfa,
  0xfc, 0xbb, 0x42, 0x34, 0xbe, 0x2b, 0x27, 0xdb, 0x27, 0xcc, 0x16, 0x46,
  0x81, 0x3e, 0x49, 0x07, 0xee, 0x43, 0xdf, 0xea, 0x3e, 0xe1, 0xbc, 0x13,
  0x2a, 0x0b, 0xc9, 0x24, 0x25, 0x2b, 0x12, 0x9b, 0x50, 0xcc, 0xe2, 0xc6,
  0xad, 0x54, 0x18, 0xac, 0x2a, 0x21, 0xdf, 0x1b, 0x16, 0xc1, 0xa4, 0x53,
  0x0b, 0x17, 0xf6, 0x04, 0xc2, 0x1a, 0xb5, 0x4e, 0x37, 0x48, 0x33, 0x29,
  0x1b, 0xad, 0x32, 0x03, 0x4a, 0x4b, 0xc6, 0x20, 0xb3, 0x54, 0xb6, 0xda,
  0xd2, 0xb7, 0xa1, 0xbd, 0x7f, 0x2b, 0xb5, 0x0b, 0xbc, 0x2b, 0x08, 0x34,
  0x45, 0xe1, 0x27, 0x9d, 0x00, 0x28, 0xe7, 0x33, 0xaa, 0x30, 0xa1, 0x9b,
  0xa0, 0xcf, 0xc7, 0xff, 0x02, 0x2e, 0xb9, 0xa0, 0x12, 0x6e, 0x13, 0x18,
  0x2a, 0xe3, 0x87, 0x40, 0xc3, 0x5e, 0x95, 0x07, 0xf1, 0xd3, 0x1a, 0x57,
  0xce, 0x23, 0x96, 0xf9, 0x2e, 0x41, 0xf8, 0x72, 0x61, 0xe9, 0xac, 0xf9,
  0x0a, 0xbf, 0xd9, 0x4b, 0xa7, 0xb5, 0x54, 0x33, 0x3e, 0xaa, 0x81, 0x02,
  0x34, 0x85, 0x0a, 0x94, 0xd9, 0x76, 0xe2, 0x49, 0xf3, 0xc6, 0x31, 0xd5,
  0x13, 0x4c, 0xcc, 0xce, 0xc5, 0x5d, 0x0b, 0xc3, 0xba, 0x4a, 0xf4, 0xeb,
  0xad, 0xaf, 0x10, 0xb6, 0xc4, 0x3c, 0xa5, 0xc3, 0x7f, 0x37, 0x2c, 0x2a,
  0x31, 0x0e, 0x4c, 0x3c, 0xfe, 0x04, 0x9a, 0x1f, 0xd8, 0x11, 0x29, 0x40,
  0xee, 0xe4, 0xc5, 0x38, 0x34, 0x2e, 0x39, 0xd4, 0xfa, 0xf6, 0xd3, 0xd7,
  0xb8, 0xd3, 0x59, 0xc1, 0x4f, 0x46, 0x10, 0xbc, 0xcf, 0xc5, 0xfa, 0x29,
  0x3a, 0xa8, 0xe7, 0xdc, 0x32, 0x04, 0xfe, 0xf1, 0x1f, 0xd6, 0x05, 0x0b,
  0x10, 0x28, 0x07, 0x1f, 0xee, 0xe8, 0x7f, 0x31, 0x1b, 0x26, 0x07, 0xd8,
  0xd2, 0x35, 0x26, 0x2d, 0x2f, 0xde, 0x1f, 0x15, 0x28, 0x26, 0xef, 0x0e,
  0xe8, 0xeb, 0xdc, 0x06, 0xec, 0xdb, 0x1d, 0xdb, 0xd4, 0xf9, 0xf7, 0x10,
  0x04, 0x20, 0x32, 0xfb, 0x52, 0x2d, 0x12, 0xd7, 0x1e, 0x1e, 0xde, 0xe2,
  0x43, 0x12, 0x28, 0x02, 0x25, 0x14, 0xe2, 0xf7, 0xde, 0x6f, 0x81, 0x59,
  0xea, 0xbf, 0xc8, 0x9c, 0xfc, 0x5b, 0x5e, 0x24, 0x9d, 0x70, 0xaf, 0xf0,
  0x20, 0xe5, 0xec, 0x51, 0xe6, 0xa1, 0xc0, 0xa1, 0x1f, 0x33, 0xab, 0xaa,
  0x5c, 0x2d, 0x30, 0x95, 0x4a, 0xa9, 0x4f, 0x2f, 0x0b, 0x3a, 0xcd, 0x93,
  0xe5, 0xb7, 0x94, 0x93, 0xc0, 0x2b, 0xae, 0x44, 0x5d, 0x2d, 0x68, 0xf4,
  0x44, 0x9b, 0x9f, 0x07, 0x14, 0xb8, 0x82, 0xc4, 0xad, 0xba, 0xdb, 0xab,
  0x9d, 0xb9, 0x46, 0xc5, 0x65, 0xbe, 0x0d, 0x63, 0xce, 0x99, 0x46, 0xe6,
  0x0c, 0x27, 0xe0, 0x39, 0xe3, 0x4c, 0x90, 0x86, 0x0a, 0xf2, 0xc4, 0x45,
  0x83, 0x7a, 0x06, 0x99, 0x3b, 0x84, 0x1a, 0xb5, 0x6a, 0x62, 0xf1, 0xb5,
  0xf1, 0x82, 0x07, 0xf1, 0xd2, 0x0c, 0x10, 0x7f, 0xe4, 0x10, 0xb6, 0xf2,
  0xb6, 0xbe, 0x25, 0x6f, 0x13, 0x72, 0xa1, 0x73, 0xe4, 0x52, 0x8d, 0x2f,
  0x53, 0x0c, 0x8a, 0xc3, 0x1a, 0xe6, 0x9c, 0xab, 0x9d, 0x56, 0x30, 0xf6,
  0xf6, 0x73, 0x93, 0xbf, 0x60, 0xcc, 0x14, 0x9a, 0x8a, 0x40, 0xef, 0xe2,
  0x5a, 0x55, 0x23, 0x0e, 0x9a, 0x10, 0x12, 0xa9, 0x87, 0xb7, 0xa2, 0x55,
  0xa6, 0x0e, 0xe9, 0x04, 0xc0, 0x4a, 0xae, 0x16, 0x02, 0x42, 0x30, 0x3b,
  0xb1, 0xac, 0x5a, 0xb2, 0x93, 0xed, 0x61, 0xdd, 0xc8, 0xfd, 0x9a, 0x81,
  0xf4, 0xd3, 0xd3, 0x56, 0x75, 0xa4, 0xa6, 0x21, 0xc8, 0xbc, 0xf3, 0x1b,
  0x6f, 0x45, 0xfd, 0xc6, 0xed, 0xbf, 0x4b, 0x4e, 0xeb, 0x8d, 0xb5, 0x3e,
  0x52, 0xaf, 0x10, 0x77, 0x52, 0xc0, 0xfb, 0x94, 0xa5, 0x62, 0x96, 0xef,
  0x8b, 0x4d, 0x14, 0x85, 0xad, 0x55, 0xfa, 0xcf, 0x62, 0xa8, 0xd1, 0x85,
  0xae, 0x81, 0x92, 0xfd, 0x9e, 0x23, 0xe8, 0x20, 0x47, 0x90, 0xb0, 0xdd,
  0xc0, 0x50, 0x1f, 0x91, 0x6a, 0x37, 0xc7, 0xc6, 0xc8, 0xb9, 0xb8, 0xa4,
  0x4f, 0x05, 0x4f, 0xb7, 0xf4, 0x26, 0xef, 0x1a, 0x0c, 0xd7, 0x9c, 0xe8,
  0xea, 0x0d, 0xd9, 0xd8, 0xb7, 0x47, 0xf9, 0xee, 0x00, 0x71, 0x34, 0x3d,
  0xe3, 0x9c, 0xf2, 0x9a, 0x4d, 0xc6, 0x15, 0x57, 0xc1, 0xcf, 0xf6, 0x4b,
  0x1d, 0x5b, 0x3d, 0xff, 0x5a, 0xaa, 0xff, 0x81, 0xdf, 0x2c, 0x5e, 0x1d,
  0x76, 0x69, 0xd2, 0xc2, 0x59, 0x59, 0x44, 0x19, 0xf6, 0xcc, 0x5c, 0xfa,
  0xf9, 0x56, 0xc3, 0xb5, 0xf9, 0x05, 0xed, 0xea, 0x2e, 0xf7, 0xcf, 0x06,
  0x26, 0xf7, 0x01, 0xf5, 0xea, 0x30, 0x1f, 0xff, 0x0a, 0x00, 0x08, 0x06,
  0xd5, 0x2b, 0xe9, 0xef, 0x21, 0xfd, 0x2a, 0x12, 0xdb, 0x30, 0x1a, 0xe9,
  0xde, 0xe4, 0x12, 0x23, 0x14, 0x16, 0x24, 0xf3, 0x02, 0xf6, 0xdd, 0xc5,
  0xe9, 0xfe, 0x24, 0x0c, 0x3b, 0x81, 0x11, 0x0b, 0xd9, 0x1b, 0xd6, 0xf5,
  0x28, 0x34, 0x0b, 0x22, 0x24, 0xe6, 0xcb, 0xeb, 0x1b, 0xf6, 0x16, 0x17,
  0xf3, 0xe3, 0xec, 0x09, 0xe5, 0xec, 0x15, 0xf9, 0xef, 0xf0, 0xec, 0xee,
  0x0b, 0x09, 0x22, 0x26, 0x04, 0x10, 0xd7, 0x18, 0xf0, 0xee, 0xfa, 0xe1,
  0xee, 0x0e, 0x36, 0xec, 0xf3, 0xf3, 0x23, 0xe4, 0x17, 0x10, 0x15, 0xe5,
  0xfd, 0xe2, 0x21, 0x12, 0xdd, 0x00, 0xf9, 0x00, 0x7f, 0xf5, 0xe4, 0x03,
  0xcc, 0xec, 0xff, 0xe5, 0x1f, 0xf4, 0xef, 0x22, 0x0e, 0x31, 0xde, 0xf7,
  0x9f, 0x70, 0x1b, 0x4a, 0xec, 0xf4, 0xa6, 0xfc, 0x7c, 0x83, 0x5e, 0x9e,
  0x28, 0xf5, 0x42, 0xc5, 0x42, 0x8c, 0x17, 0xe7, 0xd8, 0x21, 0xe4, 0x31,
  0x9c, 0xa5, 0x18, 0x62, 0x6f, 0x57, 0x8a, 0x1b, 0xe3, 0x38, 0xfc, 0x6d,
  0xd3, 0x92, 0x4f, 0x41, 0x3c, 0x76, 0x66, 0x26, 0x8a, 0xff, 0x8f, 0xfe,
  0x7f, 0x19, 0xb9, 0x20, 0x9e, 0x00, 0x06, 0xdc, 0xfb, 0x42, 0x05, 0xec,
  0x78, 0x01, 0x8d, 0x67, 0xe1, 0x10, 0x1b, 0x1b, 0xcd, 0x1d, 0xe7, 0xe5,
  0xc2, 0x16, 0xc1, 0xef, 0xc7, 0xf9, 0xff, 0x2c, 0xd5, 0xe9, 0xe5, 0xd7,
  0x3b, 0x3b, 0x09, 0x04, 0xeb, 0xf2, 0x3e, 0xda, 0x19, 0xd3, 0xd1, 0xa6,
  0xfa, 0x42, 0x17, 0xe8, 0xe8, 0xd1, 0x37, 0xea, 0x2d, 0xe5, 0x19, 0x47,
  0xfc, 0xef, 0xe7, 0xdb, 0x81, 0xfa, 0xed, 0x18, 0xef, 0x04, 0x3b, 0x0a,
  0xd2, 0xd7, 0x2c, 0x33, 0xe9, 0x1a, 0x2c, 0x37, 0x4f, 0xcf, 0x8d, 0x99,
  0xca, 0xf3, 0xfc, 0xb2, 0x1e, 0x55, 0x58, 0x28, 0xd6, 0xda, 0x93, 0x25,
  0xb4, 0xc7, 0xe4, 0xf0, 0x1d, 0x20, 0x81, 0x46, 0xf1, 0xd6, 0x78, 0xfa,
  0x06, 0x5e, 0xad, 0x48, 0x26, 0x35, 0x11, 0x05, 0x2b, 0xfe, 0x6b, 0x84,
  0xd3, 0x89, 0x67, 0x98, 0x12, 0x18, 0x4b, 0x9e, 0xd6, 0x2b, 0x0b, 0xfc,
  0x2a, 0x3d, 0x06, 0x2f, 0xad, 0x6d, 0x25, 0x16, 0x19, 0xbb, 0x15, 0x49,
  0x52, 0xca, 0xc5, 0x24, 0xc6, 0x30, 0x98, 0xa1, 0xc5, 0xe5, 0xf5, 0x02,
  0xb5, 0xa6, 0xa0, 0x24, 0x31, 0x70, 0x00, 0xed, 0xfb, 0xca, 0x4c, 0x7b,
  0xad, 0x1b, 0xe8, 0x13, 0x25, 0xff, 0xea, 0x0b, 0xfd, 0xbe, 0x0f, 0x04,
  0xfc, 0x3d, 0x3a, 0x91, 0xf1, 0x14, 0xe2, 0xa0, 0x4e, 0x07, 0x2d, 0xd6,
  0x40, 0xbd, 0x0e, 0x31, 0x2f, 0x33, 0xca, 0x36, 0x3c, 0x81, 0x1a, 0xf4,
  0x92, 0xc7, 0xd7, 0xf9, 0x3d, 0x2a, 0xb9, 0xca, 0x2c, 0x44, 0xbd, 0xf7,
  0x37, 0x30, 0xcc, 0xe4, 0x5c, 0xc5, 0x1a, 0xe1, 0x41, 0x2a, 0x3c, 0xd7,
  0xd5, 0x39, 0x43, 0xf8, 0xb2, 0x51, 0x1d, 0x41, 0x10, 0x57, 0xf9, 0xd2,
  0xc9, 0x10, 0xd1, 0x36, 0x0f, 0xb6, 0x2f, 0xd5, 0xb3, 0xfd, 0x40, 0x21,
  0x01, 0xc9, 0x1d, 0x3d, 0x81, 0x15, 0xc4, 0xd4, 0x14, 0xdb, 0x1e, 0x1d,
  0x20, 0xd8, 0x55, 0xdc, 0x4e, 0x1c, 0xe9, 0x28, 0x4c, 0x96, 0x86, 0x56,
  0x7a, 0x9f, 0x9d, 0x5d, 0x45, 0xa7, 0x8a, 0x5b, 0xc7, 0xfd, 0x47, 0x4d,
  0x1f, 0xc2, 0xb2, 0xc5, 0xa2, 0x45, 0x29, 0x52, 0x03, 0x44, 0x84, 0xdf,
  0xb3, 0x2c, 0xf3, 0xba, 0x24, 0xcb, 0xb9, 0x46, 0x1d, 0xa3, 0xce, 0xb0,
  0x44, 0x2c, 0x11, 0x6d, 0xb3, 0x04, 0xd9, 0xf7, 0xd4, 0x49, 0xe4, 0x5b,
  0x7f, 0x17, 0x6c, 0xd1, 0xda, 0xe5, 0x2b, 0xbf, 0xc7, 0x9d, 0x94, 0xe4,
  0xa5, 0xa3, 0xcd, 0x0a, 0x0e, 0xb8, 0x12, 0x46, 0xf1, 0xba, 0xa5, 0x0d,
  0x11, 0x59, 0x64, 0x0e, 0x03, 0xfe, 0xae, 0x16, 0xaa, 0x02, 0x7e, 0x12,
  0xa8, 0xeb, 0xdf, 0xb0, 0x30, 0x1b, 0x01, 0x25, 0x37, 0x47, 0xd2, 0x58,
  0x1f, 0x0e, 0x28, 0x1c, 0x0a, 0x7f, 0xe4, 0xcc, 0xe5, 0x02, 0x0b, 0xb0,
  0x33, 0xc8, 0xae, 0x3c, 0x53, 0xee, 0xab, 0x12, 0x8b, 0x21, 0x74, 0x24,
  0x5a, 0xd6, 0x4b, 0x41, 0x2c, 0xe8, 0x1a, 0xcf, 0xf6, 0xe3, 0x0a, 0x32,
  0xee, 0xf5, 0xe2, 0xe3, 0xde, 0x03, 0x25, 0x0b, 0x32, 0x0a, 0x05, 0xfd,
  0x12, 0x3c, 0xdb, 0x06, 0xe1, 0x0f, 0x26, 0xfa, 0x0a, 0x30, 0x2e, 0x3b,
  0xf1, 0xdb, 0x0c, 0xf4, 0xf2, 0xfd, 0xf2, 0x09, 0x2d, 0xdb, 0xf7, 0x16,
  0x21, 0x2b, 0x02, 0x2e, 0x13, 0x11, 0x06, 0xe5, 0xcf, 0x28, 0xec, 0x14,
  0x32, 0xf0, 0x3c, 0x11, 0x1c, 0xe3, 0x81, 0x05, 0xeb, 0xe3, 0x1e, 0xf3,
  0x14, 0xdd, 0xeb, 0xe5, 0x11, 0x2b, 0x28, 0x11, 0xfe, 0xde, 0xe1, 0xdf,
  0xd1, 0x1b, 0xf1, 0xfb, 0xe0, 0x31, 0xeb, 0xbc, 0xee, 0xe6, 0xed, 0x16,
  0x03, 0x04, 0x1c, 0x10, 0xd6, 0xfd, 0x0a, 0x2e, 0x08, 0xf9, 0xf2, 0x13,
  0x00, 0x1e, 0xfd, 0x16, 0x22, 0x11, 0xd3, 0xeb, 0x7f, 0x02, 0x1e, 0xfc,
  0x1a, 0x11, 0x06, 0xe9, 0xf5, 0x10, 0x22, 0xda, 0xfa, 0x10, 0xd2, 0x01,
  0xfe, 0xa6, 0x91, 0x0c, 0xf8, 0x59, 0x8c, 0x7f, 0x28, 0x20, 0x68, 0x82,
  0x60, 0x30, 0x98, 0x25, 0xdf, 0xa1, 0x93, 0x21, 0xd7, 0x6d, 0x5e, 0xf3,
  0x8e, 0x6c, 0x09, 0xe9, 0xe6, 0xbc, 0x46, 0x29, 0x1d, 0x15, 0x82, 0x78,
  0xe4, 0x49, 0xf9, 0xcf, 0x4e, 0xe9, 0x99, 0x85, 0xc4, 0x4f, 0xa6, 0xb8,
  0x78, 0xbc, 0x61, 0x4a, 0xfd, 0xb9, 0xc4, 0xef, 0x84, 0xd9, 0xa4, 0xaf,
  0x8e, 0x6f, 0x35, 0xe2, 0xef, 0x07, 0xee, 0x15, 0xea, 0x04, 0xf8, 0xdc,
  0x10, 0x03, 0xfb, 0xdb, 0xea, 0xfe, 0xd4, 0x16, 0xe8, 0x26, 0x26, 0x06,
  0xd3, 0x0f, 0xe6, 0xe1, 0x04, 0xeb, 0x0b, 0x18, 0xd5, 0xfd, 0x08, 0x05,
  0x0b, 0xe1, 0x2e, 0x12, 0xdf, 0xec, 0xfc, 0x00, 0x14, 0x0b, 0xe3, 0xe4,
  0x18, 0xe9, 0x00, 0x26, 0x7f, 0x38, 0x0f, 0xd5, 0x1b, 0x0e, 0x0a, 0xde,
  0x09, 0x2e, 0x3c, 0x07, 0x1d, 0xfd, 0xc6, 0xe5, 0x00, 0xf2, 0xf0, 0x13,
  0xd8, 0x21, 0x29, 0xe4, 0x13, 0xfe, 0x27, 0x2d, 0xf5, 0xef, 0x25, 0xf9,
  0xe8, 0xf4, 0x13, 0x02, 0xdc, 0xe9, 0xe2, 0xf2, 0x0e, 0xdb, 0x20, 0xf7,
  0xda, 0x81, 0xee, 0xe9, 0x02, 0x31, 0x1f, 0x16, 0x16, 0xea, 0x1f, 0x22,
  0xde, 0x26, 0xe6, 0x02, 0xe0, 0xdb, 0x22, 0x14, 0xe6, 0x0f, 0xea, 0xe0,
  0xda, 0xe2, 0xe4, 0xe0, 0xe5, 0xfe, 0xcf, 0x12, 0x00, 0xea, 0x2a, 0x01,
  0xdf, 0x0d, 0xfe, 0x16, 0xfa, 0xf0, 0x13, 0x0e, 0xeb, 0x0b, 0xee, 0xf7,
  0xed, 0x08, 0x0e, 0x0d, 0xe5, 0xf4, 0x14, 0xf0, 0x17, 0xeb, 0xf2, 0xfa,
  0xf9, 0x18, 0x19, 0xed, 0x06, 0xf9, 0xec, 0xdc, 0xf1, 0x05, 0x13, 0x17,
  0x04, 0x02, 0xe0, 0x17, 0xe3, 0xe5, 0x0a, 0xe1, 0x01, 0xf6, 0xf3, 0xf0,
  0xeb, 0xe0, 0x19, 0x17, 0xe8, 0xfe, 0xf5, 0x1b, 0xe6, 0x7f, 0xed, 0x02,
  0xf8, 0x05, 0xfc, 0xe2, 0xe9, 0xab, 0xb8, 0xe6, 0xa4, 0x0f, 0xa9, 0x2d,
  0x01, 0xd8, 0xaf, 0xdc, 0x07, 0x34, 0xca, 0x00, 0x99, 0x33, 0x0e, 0x57,
  0xf6, 0x93, 0xc9, 0xa5, 0x40, 0xda, 0x02, 0xe5, 0x1a, 0xcf, 0x06, 0x0b,
  0xaa, 0x37, 0xc9, 0x13, 0xd2, 0x46, 0xda, 0x1f, 0xe8, 0x1a, 0xc9, 0x9a,
  0x4f, 0x39, 0x4a, 0xcc, 0x04, 0x8f, 0x0c, 0xf2, 0xe9, 0x56, 0x38, 0xd4,
  0xc8, 0x32, 0x7f, 0xa5, 0xb0, 0x09, 0x64, 0xe5, 0x0e, 0x17, 0x0f, 0xd4,
  0x15, 0x13, 0xdb, 0xf4, 0x16, 0xf9, 0x2e, 0xef, 0x1e, 0x1d, 0xf5, 0x28,
  0xf7, 0x1c, 0x1e, 0xec, 0x01, 0x2d, 0xe3, 0xdf, 0xe0, 0xd9, 0x28, 0x14,
  0xfa, 0x31, 0xee, 0x29, 0x08, 0xf8, 0xdb, 0xd9, 0xd0, 0x21, 0xfe, 0x18,
  0x0e, 0xd1, 0xf8, 0xfa, 0xe1, 0x0c, 0xfe, 0xdf, 0x32, 0x03, 0x1c, 0xd7,
  0xeb, 0xe7, 0xee, 0xea, 0x3b, 0xf7, 0x38, 0xfc, 0x27, 0xfb, 0x81, 0x2c,
  0x0a, 0xfe, 0x1c, 0x36, 0xfa, 0x4d, 0xf7, 0xba, 0xd2, 0x0d, 0xe4, 0x3e,
  0xf0, 0x1b, 0x00, 0x38, 0xf6, 0xd6, 0x06, 0x33, 0x1e, 0xfe, 0x42, 0x38,
  0x33, 0xee, 0x0a, 0x30, 0xe8, 0xf7, 0x7f, 0xed, 0x2d, 0xd9, 0xbd, 0xd3,
  0x42, 0x1c, 0xcc, 0x1b, 0x4a, 0x3b, 0x2f, 0x39, 0xdd, 0x15, 0xcf, 0xd9,
  0xb4, 0xf4, 0xe0, 0xe0, 0xf9, 0x34, 0xb4, 0xe6, 0xd0, 0x12, 0xd2, 0x0a,
  0xf6, 0xe1, 0x58, 0x0e, 0x2e, 0xf6, 0xff, 0xff, 0x04, 0x00, 0x00, 0x00,
  0x00, 0x01, 0x00, 0x00, 0xef, 0xff, 0xff, 0xff, 0x27, 0x00, 0x00, 0x00,
  0xf7, 0xff, 0xff, 0xff, 0x0a, 0x00, 0x00, 0x00, 0x12, 0x00, 0x00, 0x00,
  0xf0, 0xff, 0xff, 0xff, 0xfc, 0xff, 0xff, 0xff, 0xec, 0xff, 0xff, 0xff,
  0xdf, 0xff, 0xff, 0xff, 0xde, 0xff, 0xff, 0xff, 0x0f, 0x00, 0x00, 0x00,
  0x58, 0x00, 0x00, 0x00, 0x13, 0x00, 0x00, 0x00, 0xf4, 0xff, 0xff, 0xff,
  0x01, 0x00, 0x00, 0x00, 0x14, 0x00, 0x00, 0x00, 0xfa, 0xff, 0xff, 0xff,
  0xf9, 0xff, 0xff, 0xff, 0xf1, 0xff, 0xff, 0xff, 0xf4, 0xff, 0xff, 0xff,
  0x03, 0x00, 0x00, 0x00, 0xf7, 0xff, 0xff, 0xff, 0xfc, 0xff, 0xff, 0xff,
  0xfd, 0xff, 0xff, 0xff, 0xf8, 0xff, 0xff, 0xff, 0x10, 0x00, 0x00, 0x00,
  0xf2, 0xff, 0xff, 0xff, 0x03, 0x00, 0x00, 0x00, 0xfd, 0xff, 0xff, 0xff,
  0x00, 0x00, 0x00, 0x00, 0xf7, 0xff, 0xff, 0xff, 0x20, 0x00, 0x00, 0x00,
  0xfa, 0xff, 0xff, 0xff, 0xfb, 0xff, 0xff, 0xff, 0xff, 0xff, 0xff, 0xff,
  0x0e, 0x00, 0x00, 0x00, 0x9b, 0xff, 0xff, 0xff, 0xfe, 0xff, 0xff, 0xff,
  0xfe, 0xff, 0xff, 0xff, 0xd6, 0xff, 0xff, 0xff, 0xfc, 0xff, 0xff, 0xff,
  0xf9, 0xff, 0xff, 0xff, 0x00, 0x00, 0x00, 0x00, 0xf9, 0xff, 0xff, 0xff,
  0xfc, 0xff, 0xff, 0xff, 0x1a, 0x00, 0x00, 0x00, 0xfc, 0xff, 0xff, 0xff,
  0xfd, 0xff, 0xff, 0xff, 0x09, 0x00, 0x00, 0x00, 0xdf, 0xff, 0xff, 0xff,
  0xd2, 0xff, 0xff, 0xff, 0x29, 0x00, 0x00, 0x00, 0xfa, 0xff, 0xff, 0xff,
  0xed, 0xff, 0xff, 0xff, 0x24, 0x00, 0x00, 0x00, 0xfc, 0xff, 0xff, 0xff,
  0x0a, 0x00, 0x00, 0x00, 0x00, 0x00, 0x00, 0x00, 0x0d, 0x00, 0x00, 0x00,
  0x36, 0x00, 0x00, 0x00, 0xff, 0xff, 0xff, 0xff, 0xea, 0xff, 0xff, 0xff,
  0xf3, 0xff, 0xff, 0xff, 0x0a, 0x00, 0x00, 0x00, 0x3a, 0xf7, 0xff, 0xff,
  0x04, 0x00, 0x00, 0x00, 0x00, 0x08, 0x00, 0x00, 0x72, 0xd0, 0xc8, 0x65,
  0x15, 0xd5, 0x1e, 0xad, 0x3d, 0xae, 0x47, 0x39, 0x17, 0xd5, 0x09, 0x3a,
  0xcb, 0x02, 0x62, 0x41, 0xa9, 0xcd, 0x54, 0xb2, 0x12, 0x22, 0x4d, 0xdc,
  0xbb, 0x72, 0xf7, 0x0a, 0xe9, 0xc2, 0xce, 0xc1, 0x6b, 0xc2, 0x70, 0x9f,
  0x9c, 0x0f, 0x0b, 0x6f, 0x08, 0x7f, 0x01, 0x13, 0xab, 0x16, 0x60, 0xa0,
  0xc3, 0xe5, 0xb9, 0xb3, 0xec, 0xb4, 0xb8, 0xad, 0x71, 0x69, 0x2e, 0xb2,
  0xd9, 0x1d, 0x27, 0x0e, 0x19, 0xcc, 0xc8, 0xfc, 0xff, 0xc1, 0xe0, 0x12,
  0xe1, 0xd9, 0x1a, 0x2d, 0x32, 0x11, 0xd7, 0x0e, 0x31, 0xd5, 0x09, 0xc3,
  0x0a, 0x12, 0xde, 0x11, 0x3e, 0xfb, 0x18, 0x28, 0x29, 0x02, 0xc5, 0x26,
  0x0c, 0xfe, 0xcc, 0x2c, 0x81, 0xd3, 0x1d, 0xec, 0x1d, 0xf1, 0x3d, 0xdd,
  0xf6, 0x28, 0xe0, 0x1e, 0xe8, 0x21, 0x0c, 0x97, 0xe5, 0x33, 0xf8, 0x3e,
  0x2c, 0xda, 0xbe, 0x14, 0xf8, 0xe4, 0x9b, 0x24, 0x96, 0xe3, 0x05, 0xe0,
  0xf4, 0x5a, 0xf5, 0xd2, 0x69, 0x1d, 0x0a, 0xda, 0xdf, 0xe0, 0xe3, 0x7f,
  0xee, 0x3b, 0x3e, 0xf8, 0x2c, 0x5d, 0x1d, 0x27, 0x66, 0x02, 0x5d, 0x51,
  0xad, 0x58, 0x1c, 0xec, 0xdf, 0x2e, 0xd1, 0x3c, 0x35, 0x66, 0xe8, 0xa1,
  0x15, 0x4c, 0xde, 0xa2, 0x6f, 0xbc, 0xf0, 0xd6, 0x1b, 0xb7, 0xd5, 0xec,
  0x75, 0x50, 0x5d, 0x40, 0x2d, 0x2d, 0x06, 0xa9, 0x25, 0x29, 0xa5, 0xa7,
  0xff, 0xda, 0xde, 0xb6, 0x59, 0xe1, 0x5a, 0xfb, 0x42, 0xa9, 0xbe, 0xed,
  0xa7, 0x41, 0xca, 0xd5, 0xca, 0x1a, 0xa5, 0x23, 0xae, 0x9e, 0xee, 0x2c,
  0x24, 0x2b, 0xd5, 0x0c, 0xf3, 0x0e, 0xf3, 0xf1, 0x6b, 0x4d, 0xd3, 0xae,
  0x57, 0x15, 0xdc, 0x98, 0xad, 0x3b, 0x10, 0xb8, 0x91, 0x67, 0xe9, 0x55,
  0x30, 0xb9, 0xda, 0x68, 0xd4, 0x35, 0xb5, 0x01, 0x3e, 0x9e, 0x7f, 0x20,
  0xa1, 0xc8, 0x0f, 0xe0, 0x1c, 0xde, 0xaa, 0x28, 0x93, 0xc7, 0x8d, 0x70,
  0xfc, 0xc7, 0x4c, 0xf2, 0xf6, 0x59, 0xc2, 0x16, 0x24, 0x97, 0xd0, 0x54,
  0x5f, 0x84, 0x5d, 0x0c, 0x39, 0xca, 0xf3, 0xed, 0xb8, 0xa8, 0x1c, 0x28,
  0x0b, 0x0c, 0xfa, 0xf7, 0x5e, 0xfe, 0x1b, 0x93, 0xb4, 0x81, 0xb0, 0x34,
  0x14, 0x97, 0x13, 0x73, 0x9f, 0x8b, 0x46, 0x0e, 0xfc, 0x26, 0xd6, 0xc4,
  0xe6, 0x39, 0x9e, 0x43, 0xb3, 0xad, 0xd8, 0xfe, 0xd7, 0x2d, 0x57, 0x1f,
  0x85, 0x3b, 0xb7, 0xe0, 0x01, 0x9c, 0x38, 0x0a, 0x88, 0x4e, 0x51, 0xbd,
  0xb7, 0x25, 0x8d, 0xdc, 0xd1, 0x57, 0xb0, 0x61, 0x67, 0xe7, 0x54, 0xa7,
  0x91, 0x34, 0xff, 0x2a, 0x0d, 0x83, 0xe3, 0xc9, 0xf8, 0xe0, 0xac, 0x92,
  0x97, 0xa7, 0x81, 0x97, 0x49, 0x57, 0x97, 0xed, 0x20, 0x88, 0xca, 0x19,
  0x04, 0xe9, 0x2c, 0xbb, 0xd8, 0x9b, 0xd6, 0x39, 0xdf, 0x9c, 0x39, 0xff,
  0xaa, 0x7c, 0x0a, 0xd7, 0xaf, 0x14, 0x39, 0x68, 0x39, 0x64, 0xd8, 0xef,
  0x56, 0x1a, 0x22, 0xe6, 0x5c, 0x93, 0x14, 0xa6, 0xee, 0xdc, 0xac, 0xde,
  0x13, 0x55, 0x92, 0xed, 0x4d, 0x81, 0x67, 0x98, 0x7d, 0xe1, 0xb6, 0x92,
  0xc1, 0x29, 0x8a, 0x67, 0x66, 0x16, 0xe8, 0x4d, 0xff, 0x47, 0x48, 0x30,
  0x73, 0x10, 0x48, 0xd6, 0x35, 0x43, 0x54, 0x24, 0xc6, 0x79, 0x0d, 0x50,
  0xe8, 0xd7, 0x42, 0x21, 0xd1, 0xb9, 0x05, 0x53, 0x54, 0xdb, 0x5b, 0x55,
  0x87, 0xfd, 0x2c, 0x0d, 0x21, 0x18, 0x4f, 0x34, 0x21, 0xcc, 0xb4, 0x99,
  0x17, 0x31, 0x11, 0x53, 0xb7, 0x4b, 0xc5, 0x61, 0x8d, 0xd0, 0xf8, 0x26,
  0xa5, 0x22, 0x13, 0x19, 0xbe, 0xe2, 0xfa, 0xf2, 0xe7, 0xf4, 0x45, 0x49,
  0x30, 0xc5, 0xde, 0x3a, 0x29, 0x63, 0xb1, 0x7f, 0x9d, 0x1c, 0xa9, 0xeb,
  0x44, 0x3d, 0x3e, 0x03, 0x1d, 0x33, 0x17, 0xd6, 0x1e, 0x12, 0xdd, 0xda,
  0xd4, 0xc6, 0xf2, 0x36, 0x10, 0xb4, 0xe9, 0xfd, 0x2f, 0x10, 0xd7, 0x1d,
  0xeb, 0xc6, 0xc6, 0x3b, 0x19, 0xfc, 0x38, 0xd0, 0xe3, 0x2c, 0xec, 0x31,
  0xed, 0x15, 0xeb, 0xfc, 0xfb, 0x1b, 0xe8, 0x14, 0x18, 0xf3, 0x1a, 0x00,
  0xda, 0xd6, 0xfe, 0xfd, 0xf3, 0xe9, 0xd1, 0xc8, 0xd6, 0xfd, 0x0c, 0xa5,
  0x0c, 0x3a, 0xe3, 0xe7, 0x0d, 0xed, 0x81, 0x03, 0x29, 0x57, 0x28, 0xda,
  0x61, 0x4d, 0xfa, 0x16, 0x0c, 0x50, 0x44, 0x3a, 0x5b, 0xb5, 0x09, 0xa2,
  0xc8, 0xa8, 0x09, 0xca, 0xe8, 0x98, 0x0f, 0xa9, 0xbf, 0x6c, 0x14, 0x6f,
  0x04, 0x49, 0xb2, 0x5f, 0x36, 0xa3, 0x38, 0x14, 0xd0, 0xf2, 0xeb, 0x2e,
  0x5c, 0x4f, 0xe9, 0x81, 0xa1, 0x0e, 0x03, 0xea, 0xcd, 0x04, 0x13, 0xc4,
  0x73, 0x3c, 0xdf, 0x64, 0xd8, 0x3a, 0x35, 0x43, 0xf2, 0xa9, 0xce, 0x9e,
  0xe4, 0x4f, 0xc4, 0x57, 0x60, 0x5d, 0xde, 0x93, 0x12, 0x5b, 0x5d, 0x18,
  0xf3, 0x0b, 0x76, 0x93, 0x4a, 0x40, 0x9a, 0x34, 0x98, 0x37, 0xee, 0x5b,
  0x23, 0x72, 0x4d, 0xf0, 0x06, 0x0b, 0xc8, 0xee, 0x19, 0x07, 0xce, 0xcf,
  0xf3, 0x2c, 0x46, 0xbc, 0x1e, 0xee, 0x73, 0xab, 0xdb, 0xb9, 0xda, 0xda,
  0x3a, 0xc2, 0x66, 0xfd, 0xf8, 0x97, 0x06, 0x81, 0x64, 0xdc, 0xc0, 0x9c,
  0x5e, 0xe5, 0x47, 0xb4, 0x46, 0xd6, 0x7f, 0x36, 0x74, 0xd7, 0x32, 0xe7,
  0xa3, 0x1d, 0x0b, 0x77, 0xa2, 0x06, 0x72, 0xc5, 0xf8, 0x6f, 0x20, 0xe8,
  0x68, 0x48, 0x96, 0x53, 0xd5, 0x5e, 0x2a, 0xce, 0xce, 0xc5, 0x1e, 0x47,
  0x97, 0x06, 0xda, 0x11, 0x48, 0xc1, 0x84, 0x45, 0x27, 0x5c, 0xb8, 0x06,
  0x9f, 0x41, 0x35, 0x44, 0xa1, 0x35, 0x2d, 0x60, 0xad, 0x43, 0x19, 0x9d,
  0xfb, 0xcb, 0xd3, 0xb9, 0xde, 0x73, 0x15, 0x5b, 0x12, 0x5d, 0xb2, 0xe8,
  0x9b, 0xb3, 0xeb, 0x3a, 0x4d, 0x90, 0xde, 0x2f, 0xed, 0xf0, 0xe0, 0xd6,
  0xbd, 0xa7, 0xc6, 0x83, 0x39, 0x91, 0xd9, 0x60, 0xbd, 0x27, 0x1c, 0x02,
  0x5b, 0x0b, 0x0d, 0x58, 0x1f, 0x7f, 0xd6, 0x40, 0x02, 0xc4, 0x82, 0xf4,
  0xf4, 0x45, 0xe9, 0xa0, 0xa5, 0xf2, 0x3f, 0x6a, 0xd7, 0x58, 0x68, 0x60,
  0x74, 0x33, 0xca, 0x36, 0x15, 0x09, 0x38, 0x36, 0x30, 0x57, 0x94, 0xbd,
  0xb7, 0xee, 0x7c, 0x35, 0xef, 0x0d, 0xeb, 0xcf, 0x5d, 0x48, 0xbd, 0x81,
  0xa1, 0x2e, 0x3b, 0x68, 0xb5, 0x85, 0xba, 0x3d, 0xfa, 0xc4, 0x59, 0x76,
  0x4a, 0x8a, 0x9a, 0xda, 0x0e, 0xc9, 0x4a, 0xa4, 0x12, 0xff, 0xa3, 0x12,
  0x51, 0xea, 0xf7, 0x0c, 0xad, 0xff, 0x35, 0x15, 0xbd, 0x3a, 0x42, 0x65,
  0x9c, 0x3c, 0x13, 0x93, 0xf8, 0x65, 0x1a, 0xe7, 0xa9, 0x17, 0x8d, 0xcc,
  0x08, 0x18, 0xff, 0xa3, 0x36, 0x58, 0xb5, 0x14, 0xb3, 0x39, 0x1f, 0x18,
  0xe7, 0xe9, 0x5f, 0x21, 0x1a, 0x04, 0xf4, 0xbc, 0x46, 0x30, 0x4c, 0x81,
  0x4c, 0xc0, 0x05, 0x44, 0x3d, 0xa0, 0x3f, 0xa5, 0x37, 0x05, 0xdf, 0x51,
  0x0c, 0x36, 0xaf, 0x27, 0x54, 0x02, 0x1a, 0xee, 0x14, 0x0e, 0xda, 0x6d,
  0xe8, 0x45, 0x20, 0x2d, 0x3f, 0x9d, 0xf9, 0x42, 0x1c, 0xbe, 0xc7, 0x2b,
  0x9c, 0x9f, 0xa3, 0xc2, 0xc5, 0xb4, 0x9c, 0x2e, 0x31, 0x01, 0x03, 0x0a,
  0x37, 0xfc, 0xe8, 0x0c, 0xdb, 0xed, 0x0b, 0x23, 0xed, 0xf9, 0xea, 0xe3,
  0xff, 0xfd, 0xbf, 0x0f, 0xe1, 0x18, 0xe8, 0x22, 0x10, 0xe9, 0xee, 0x0b,
  0x19, 0xed, 0x26, 0xf1, 0xf3, 0x22, 0xfc, 0x36, 0xfb, 0xf2, 0x16, 0xd0,
  0x16, 0xe8, 0x13, 0xfc, 0x06, 0xe9, 0x0b, 0x0b, 0x25, 0x02, 0xf3, 0xf0,
  0xc8, 0xed, 0xaf, 0xf3, 0x1d, 0x22, 0x26, 0xfb, 0x7f, 0xde, 0x0e, 0xfc,
  0xc2, 0x3c, 0x58, 0xdb, 0x53, 0x4e, 0x99, 0xfe, 0x5e, 0x0f, 0x56, 0x09,
  0x2c, 0xb5, 0x4f, 0x24, 0xca, 0xf9, 0xee, 0x7f, 0x0d, 0x41, 0xc4, 0x25,
  0x67, 0xbd, 0xef, 0xe4, 0x0c, 0x32, 0xab, 0xb2, 0x3d, 0x44, 0xb1, 0xda,
  0xce, 0x0e, 0xce, 0x9d, 0x4f, 0x55, 0xce, 0xbe, 0x44, 0x12, 0xaa, 0x4b,
  0xc7, 0x3d, 0x58, 0xcb, 0x33, 0xb8, 0xbc, 0xcf, 0xcd, 0xee, 0x4c, 0xc4,
  0x4a, 0x56, 0xe3, 0xf5, 0xf6, 0x32, 0xd1, 0xd4, 0xfe, 0xce, 0xf2, 0x05,
  0xdc, 0xd9, 0xca, 0xe7, 0x26, 0x0f, 0xdd, 0x0e, 0xf1, 0xc1, 0xc6, 0xf2,
  0x2a, 0xde, 0xe9, 0x3f, 0x1a, 0xc8, 0xdc, 0xfa, 0xd9, 0xf9, 0xce, 0xca,
  0xcd, 0xfb, 0xfe, 0xb2, 0xf1, 0x22, 0xc8, 0x07, 0x33, 0x11, 0xfa, 0xfb,
  0x37, 0x30, 0x31, 0x16, 0x32, 0xd1, 0x2e, 0x08, 0x05, 0x03, 0x05, 0x32,
  0xfe, 0xe9, 0x22, 0x81, 0x1c, 0xf7, 0x2d, 0x05, 0xd1, 0x3c, 0xdc, 0x15,
  0xe2, 0x1c, 0xe1, 0xe7, 0xc5, 0xa9, 0x1c, 0x2b, 0x26, 0xc6, 0x04, 0xd0,
  0xda, 0xbb, 0xb6, 0xfb, 0xda, 0xe7, 0xee, 0xe6, 0xdc, 0x01, 0xcd, 0x45,
  0xcf, 0xd9, 0x21, 0x00, 0x1a, 0xba, 0x06, 0xc7, 0x0f, 0x44, 0x19, 0x40,
  0x81, 0x1c, 0x2b, 0xba, 0x4d, 0x15, 0xdd, 0x4d, 0xd3, 0x18, 0xc6, 0xf8,
  0xbf, 0xef, 0x46, 0xe6, 0xe1, 0xbe, 0xe6, 0xca, 0xfd, 0xf8, 0xb7, 0xf1,
  0x27, 0xba, 0xfe, 0x0f, 0x3e, 0xb9, 0xba, 0xce, 0xd2, 0xef, 0x46, 0x1e,
  0xce, 0x48, 0xcf, 0xe2, 0xed, 0x06, 0x2c, 0xe2, 0x28, 0x54, 0xf5, 0xda,
  0x25, 0xd2, 0x18, 0xc2, 0xe6, 0x4a, 0xd3, 0xfb, 0x4e, 0x1e, 0x44, 0x7f,
  0xe6, 0xb9, 0x22, 0xfc, 0xca, 0xbe, 0x36, 0xe7, 0xae, 0x22, 0x20, 0xe4,
  0xbd, 0xe7, 0xbe, 0x3c, 0xa4, 0xc5, 0x63, 0x2a, 0xcf, 0xb3, 0x18, 0xee,
  0x23, 0x14, 0x9c, 0x4e, 0xfc, 0xa4, 0x2b, 0x1d, 0xd9, 0xdc, 0x0f, 0x2e,
  0x20, 0x1f, 0x0d, 0x28, 0xdb, 0xdd, 0x05, 0xab, 0xfd, 0xee, 0x16, 0xca,
  0xe4, 0x16, 0xb6, 0x3e, 0x17, 0xbc, 0x16, 0x46, 0x11, 0xe0, 0xf9, 0x21,
  0x31, 0xe8, 0x36, 0xe0, 0xb7, 0xcc, 0xfb, 0x4c, 0xcf, 0x0a, 0xcf, 0xd6,
  0xdf, 0xef, 0xde, 0xd1, 0x1d, 0x24, 0xe5, 0x13, 0x2d, 0xd2, 0x81, 0xf4,
  0xbb, 0x3b, 0x42, 0x65, 0xb6, 0x33, 0xcd, 0xf1, 0x85, 0x95, 0x30, 0x99,
  0xa4, 0x81, 0x1b, 0xf2, 0x97, 0x19, 0x19, 0xf6, 0xb4, 0xa9, 0x1a, 0x3e,
  0x08, 0xe0, 0x31, 0xc7, 0x88, 0xee, 0x4f, 0xb2, 0x74, 0x6d, 0xdb, 0xbd,
  0xc8, 0xad, 0x34, 0x27, 0xeb, 0xe6, 0x64, 0x10, 0x77, 0xfb, 0xb4, 0xa8,
  0xd3, 0x28, 0x74, 0xe6, 0xd9, 0xa6, 0xee, 0x33, 0x1c, 0x8e, 0xa9, 0xd4,
  0xf5, 0xac, 0x6d, 0x86, 0x87, 0x9b, 0xa5, 0x08, 0x1e, 0x6d, 0x07, 0x99,
  0x2d, 0x52, 0xda, 0x58, 0x2e, 0xd4, 0xfc, 0xdc, 0xb2, 0xf1, 0xe4, 0xeb,
  0x4f, 0xff, 0xff, 0x07, 0x04, 0x1c, 0x13, 0xfa, 0xe9, 0x3e, 0xce, 0x3b,
  0xc6, 0xf1, 0x6c, 0xf5, 0xf5, 0xf9, 0x48, 0xb5, 0x43, 0x0f, 0xe1, 0x3d,
  0x27, 0xe4, 0xfb, 0x11, 0x00, 0xed, 0x24, 0x47, 0xd2, 0x1b, 0x0c, 0x4b,
  0x4a, 0x26, 0x44, 0x47, 0xc0, 0x02, 0x02, 0xce, 0x07, 0x46, 0xef, 0x43,
  0x52, 0x46, 0x7f, 0x4a, 0xe2, 0x39, 0x11, 0x2f, 0x1d, 0xdc, 0xda, 0xff,
  0xe3, 0x81, 0xf3, 0x39, 0xf7, 0xf8, 0x01, 0xf9, 0xbd, 0xd2, 0x15, 0x14,
  0x3a, 0x09, 0xe2, 0xf6, 0xe8, 0x09, 0xf9, 0x07, 0xf4, 0xd5, 0x48, 0x51,
  0x27, 0x34, 0xc8, 0x51, 0xf2, 0xcb, 0xe6, 0x02, 0xb5, 0xf3, 0xd1, 0xbe,
  0xd0, 0xdd, 0xb6, 0xfb, 0xe2, 0xfa, 0x16, 0x0c, 0x02, 0x14, 0x16, 0xb4,
  0x4a, 0x3e, 0xec, 0xde, 0x1d, 0xff, 0xb9, 0x28, 0x41, 0x20, 0xda, 0x39,
  0xfe, 0x3c, 0xdb, 0x01, 0xfb, 0xa8, 0xe4, 0xe1, 0x09, 0x23, 0x19, 0x27,
  0x11, 0x31, 0xe2, 0x04, 0xee, 0xf3, 0xd1, 0x16, 0xcf, 0x47, 0xee, 0xcd,
  0x0c, 0x3b, 0x46, 0x10, 0xc6, 0x38, 0xee, 0x4f, 0xdc, 0x41, 0x24, 0xe3,
  0xc6, 0xd1, 0x38, 0xff, 0x37, 0x3f, 0x97, 0x10, 0x1e, 0xee, 0xcf, 0x0f,
  0xc6, 0xdc, 0xce, 0xdb, 0x39, 0xce, 0xff, 0xf8, 0x25, 0x06, 0x81, 0xd2,
  0x33, 0x2c, 0xff, 0x3b, 0xd5, 0xed, 0xbb, 0x00, 0x18, 0x23, 0xb4, 0xcd,
  0xd6, 0xd5, 0xdf, 0xc3, 0x20, 0x45, 0x17, 0xbf, 0xba, 0x81, 0xa8, 0x22,
  0xa8, 0xbf, 0x66, 0xd6, 0xc6, 0xbd, 0xdd, 0xcd, 0xb1, 0xad, 0xe1, 0x45,
  0x1e, 0x24, 0xef, 0xec, 0xb7, 0xf1, 0xf9, 0xd1, 0x0d, 0xac, 0x88, 0x2f,
  0x47, 0x42, 0xaf, 0x42, 0x3e, 0xe6, 0xd9, 0xf6, 0xee, 0x24, 0x40, 0xc2,
  0xe3, 0x24, 0xcb, 0x27, 0x0b, 0xd4, 0xfd, 0x36, 0xde, 0xe1, 0x2a, 0x21,
  0xd7, 0xfc, 0xff, 0xec, 0x21, 0xfc, 0x20, 0xee, 0xd2, 0x2f, 0xe4, 0xe7,
  0x21, 0xd9, 0x05, 0xe6, 0xca, 0x14, 0x05, 0xd4, 0xeb, 0xd9, 0x30, 0xf9,
  0xd6, 0x1b, 0x7f, 0xee, 0x1a, 0xe2, 0x1e, 0x11, 0xf1, 0xd4, 0xe2, 0xf6,
  0xec, 0xfd, 0x26, 0x28, 0x30, 0xeb, 0x34, 0xd8, 0x0e, 0xf8, 0xf6, 0x02,
  0x1e, 0xe9, 0xec, 0x90, 0x69, 0x1b, 0x0b, 0xd4, 0xf0, 0x21, 0x17, 0x18,
  0xe7, 0x24, 0xf2, 0x22, 0xdb, 0xe5, 0x22, 0xd8, 0x0b, 0xd8, 0x19, 0xf1,
  0xe1, 0x13, 0xe6, 0x24, 0x1b, 0x14, 0x21, 0xfb, 0xf4, 0x17, 0xe2, 0xf3,
  0xf2, 0x04, 0xfb, 0xde, 0xe0, 0x11, 0x15, 0xd8, 0xd7, 0x12, 0xfe, 0x01,
  0x04, 0xfe, 0x10, 0xf1, 0xe1, 0xfe, 0x16, 0xfe, 0x13, 0xd7, 0xec, 0x1e,
  0xd1, 0xe7, 0x12, 0x16, 0x23, 0x1e, 0x16, 0x81, 0x14, 0xf8, 0x1e, 0xf2,
  0xde, 0x05, 0xe0, 0xa4, 0xf4, 0x81, 0xd2, 0x28, 0x90, 0x45, 0xd1, 0xa0,
  0xbb, 0xf5, 0x91, 0x41, 0xb1, 0x1e, 0x05, 0xf3, 0xe3, 0xe7, 0xa1, 0x34,
  0xeb, 0xa9, 0x95, 0xb2, 0xc2, 0xc3, 0x49, 0x3a, 0xaa, 0x07, 0x02, 0x14,
  0x0b, 0x03, 0x69, 0x4e, 0xd7, 0x0f, 0x33, 0xed, 0x31, 0xf3, 0x91, 0xd5,
  0x40, 0xa1, 0x58, 0x94, 0x1b, 0xcb, 0x25, 0x9f, 0xa9, 0xa0, 0x85, 0xd9,
  0x06, 0x2e, 0xd0, 0xd0, 0x0a, 0xe4, 0xf5, 0x1e, 0x1f, 0x0a, 0x17, 0xe5,
  0xf0, 0x2b, 0x24, 0x0a, 0x0b, 0xd1, 0x16, 0x12, 0x15, 0xe8, 0xcb, 0xe7,
  0xf4, 0xfe, 0xe7, 0xf3, 0x10, 0x05, 0x0f, 0xf2, 0x08, 0x15, 0xdd, 0xd9,
  0x1a, 0xfb, 0x24, 0xc1, 0xb2, 0x01, 0xfe, 0xe7, 0x0a, 0xf7, 0x0b, 0x1f,
  0x0c, 0xeb, 0x1d, 0x1d, 0xed, 0xf6, 0xdf, 0xcb, 0xe8, 0xda, 0xf8, 0x10,
  0x24, 0x09, 0x15, 0x81, 0xec, 0x6e, 0x3d, 0xdc, 0x1a, 0xc7, 0xf0, 0x33,
  0x11, 0x8e, 0xde, 0x12, 0x19, 0x0c, 0xf3, 0x2f, 0x01, 0xde, 0xe8, 0x24,
  0xfe, 0xed, 0xac, 0xee, 0xee, 0x04, 0xf8, 0xdd, 0xdd, 0xeb, 0x05, 0xfb,
  0x26, 0xfd, 0xd2, 0xe5, 0x1c, 0x21, 0x27, 0xe0, 0xdb, 0x08, 0xea, 0xe0,
  0x01, 0x1c, 0x26, 0xff, 0xe7, 0x18, 0xf9, 0x49, 0x0c, 0xda, 0xea, 0x05,
  0xd3, 0x05, 0x13, 0x10, 0x4a, 0xf2, 0x19, 0x81, 0xe5, 0xd8, 0x23, 0xdf,
  0x68, 0x67, 0x66, 0x13, 0xe3, 0x38, 0xce, 0xda, 0x73, 0xe0, 0x02, 0x56,
  0xa5, 0xed, 0x67, 0x79, 0xed, 0x0c, 0x0a, 0xf0, 0x53, 0xc9, 0xd2, 0xd6,
  0xd5, 0x18, 0xfb, 0x70, 0x99, 0x6f, 0x97, 0x2b, 0x0c, 0x36, 0x2a, 0x56,
  0xd9, 0x0b, 0x98, 0x2d, 0x7f, 0x86, 0x16, 0xe2, 0x2f, 0x2b, 0xe4, 0x03,
  0xeb, 0x20, 0xe8, 0xa7, 0xaf, 0xff, 0x04, 0x2a, 0x3e, 0xb7, 0xbe, 0x17,
  0xca, 0xca, 0x03, 0xa8, 0x46, 0xff, 0xff, 0xff, 0x04, 0x00, 0x00, 0x00,
  0x80, 0x00, 0x00, 0x00, 0xb4, 0xff, 0xff, 0xff, 0x99, 0x00, 0x00, 0x00,
  0x8c, 0x00, 0x00, 0x00, 0x49, 0x00, 0x00, 0x00, 0xea, 0xff, 0xff, 0xff,
  0xd6, 0xff, 0xff, 0xff, 0x6f, 0x00, 0x00, 0x00, 0x62, 0x00, 0x00, 0x00,
  0x51, 0x00, 0x00, 0x00, 0x67, 0x00, 0x00, 0x00, 0x8f, 0xff, 0xff, 0xff,
  0xbb, 0xff, 0xff, 0xff, 0xa3, 0xff, 0xff, 0xff, 0x00, 0x00, 0x00, 0x00,
  0x9e, 0xff, 0xff, 0xff, 0x62, 0x00, 0x00, 0x00, 0x57, 0x00, 0x00, 0x00,
  0x6a, 0x00, 0x00, 0x00, 0x06, 0x00, 0x00, 0x00, 0x0b, 0x00, 0x00, 0x00,
  0xda, 0xff, 0xff, 0xff, 0x00, 0x00, 0x00, 0x00, 0x56, 0x00, 0x00, 0x00,
  0x3b, 0x00, 0x00, 0x00, 0x22, 0x00, 0x00, 0x00, 0xd8, 0xff, 0xff, 0xff,
  0xe9, 0xff, 0xff, 0xff, 0x14, 0x00, 0x00, 0x00, 0xd0, 0xff, 0xff, 0xff,
  0x7f, 0x00, 0x00, 0x00, 0x3c, 0x00, 0x00, 0x00, 0x6d, 0x00, 0x00, 0x00,
  0xd2, 0xff, 0xff, 0xff, 0x04, 0x00, 0x00, 0x00, 0x20, 0x00, 0x00, 0x00,
  0xc9, 0x4e, 0x6f, 0x76, 0x30, 0xbf, 0x4e, 0x77, 0x68, 0x4b, 0xe6, 0xd7,
  0xaa, 0x3b, 0xeb, 0xd7, 0x12, 0x50, 0x79, 0x09, 0xf7, 0xe1, 0x66, 0xb3,
  0xcc, 0xea, 0x4b, 0x5d, 0xfe, 0x7f, 0x33, 0x2b, 0x00, 0x00, 0x06, 0x00,
  0x08, 0x00, 0x04, 0x00, 0x06, 0x00, 0x00, 0x00, 0x04, 0x00, 0x00, 0x00,
  0x04, 0x00, 0x00, 0x00, 0x6b, 0x00, 0x00, 0x00, 0x80, 0xff, 0xff, 0xff,
  0x84, 0xff, 0xff, 0xff, 0x0f, 0x00, 0x00, 0x00, 0x4d, 0x4c, 0x49, 0x52,
  0x20, 0x43, 0x6f, 0x6e, 0x76, 0x65, 0x72, 0x74, 0x65, 0x64, 0x2e, 0x00,
  0x01, 0x00, 0x00, 0x00, 0x14, 0x00, 0x00, 0x00, 0x00, 0x00, 0x0e, 0x00,
  0x18, 0x00, 0x14, 0x00, 0x10, 0x00, 0x0c, 0x00, 0x08, 0x00, 0x04, 0x00,
  0x0e, 0x00, 0x00, 0x00, 0x14, 0x00, 0x00, 0x00, 0x1c, 0x00, 0x00, 0x00,
  0x24, 0x01, 0x00, 0x00, 0x28, 0x01, 0x00, 0x00, 0x2c, 0x01, 0x00, 0x00,
  0x04, 0x00, 0x00, 0x00, 0x6d, 0x61, 0x69, 0x6e, 0x00, 0x00, 0x00, 0x00,
  0x04, 0x00, 0x00, 0x00, 0xcc, 0x00, 0x00, 0x00, 0x84, 0x00, 0x00, 0x00,
  0x3c, 0x00, 0x00, 0x00, 0x04, 0x00, 0x00, 0x00, 0x96, 0xff, 0xff, 0xff,
  0x14, 0x00, 0x00, 0x00, 0x00, 0x00, 0x00, 0x08, 0x10, 0x00, 0x00, 0x00,
  0x14, 0x00, 0x00, 0x00, 0x04, 0x00, 0x04, 0x00, 0x04, 0x00, 0x00, 0x00,
  0x01, 0x00, 0x00, 0x00, 0x0c, 0x00, 0x00, 0x00, 0x03, 0x00, 0x00, 0x00,
  0x0b, 0x00, 0x00, 0x00, 0x02, 0x00, 0x00, 0x00, 0x01, 0x00, 0x00, 0x00,
  0xca, 0xff, 0xff, 0xff, 0x10, 0x00, 0x00, 0x00, 0x00, 0x00, 0x00, 0x08,
  0x10, 0x00, 0x00, 0x00, 0x14, 0x00, 0x00, 0x00, 0x76, 0xff, 0xff, 0xff,
  0x00, 0x00, 0x00, 0x01, 0x01, 0x00, 0x00, 0x00, 0x0b, 0x00, 0x00, 0x00,
  0x03, 0x00, 0x00, 0x00, 0x0a, 0x00, 0x00, 0x00, 0x04, 0x00, 0x00, 0x00,
  0x03, 0x00, 0x00, 0x00, 0x00, 0x00, 0x0e, 0x00, 0x14, 0x00, 0x00, 0x00,
  0x10, 0x00, 0x0c, 0x00, 0x0b, 0x00, 0x04, 0x00, 0x0e, 0x00, 0x00, 0x00,
  0x10, 0x00, 0x00, 0x00, 0x00, 0x00, 0x00, 0x08, 0x10, 0x00, 0x00, 0x00,
  0x14, 0x00, 0x00, 0x00, 0xba, 0xff, 0xff, 0xff, 0x00, 0x00, 0x00, 0x01,
  0x01, 0x00, 0x00, 0x00, 0x0a, 0x00, 0x00, 0x00, 0x03, 0x00, 0x00, 0x00,
  0x09, 0x00, 0x00, 0x00, 0x06, 0x00, 0x00, 0x00, 0x05, 0x00, 0x00, 0x00,
  0x00, 0x00, 0x0e, 0x00, 0x16, 0x00, 0x00, 0x00, 0x10, 0x00, 0x0c, 0x00,
  0x0b, 0x00, 0x04, 0x00, 0x0e, 0x00, 0x00, 0x00, 0x18, 0x00, 0x00, 0x00,
  0x00, 0x00, 0x00, 0x08, 0x18, 0x00, 0x00, 0x00, 0x1c, 0x00, 0x00, 0x00,
  0x00, 0x00, 0x06, 0x00, 0x08, 0x00, 0x07, 0x00, 0x06, 0x00, 0x00, 0x00,
  0x00, 0x00, 0x00, 0x01, 0x01, 0x00, 0x00, 0x00, 0x09, 0x00, 0x00, 0x00,
  0x03, 0x00, 0x00, 0x00, 0x00, 0x00, 0x00, 0x00, 0x08, 0x00, 0x00, 0x00,
  0x07, 0x00, 0x00, 0x00, 0x01, 0x00, 0x00, 0x00, 0x0c, 0x00, 0x00, 0x00,
  0x01, 0x00, 0x00, 0x00, 0x00, 0x00, 0x00, 0x00, 0x0d, 0x00, 0x00, 0x00,
  0x58, 0x15, 0x00, 0x00, 0xd8, 0x14, 0x00, 0x00, 0x4c, 0x14, 0x00, 0x00,
  0x50, 0x12, 0x00, 0x00, 0x6c, 0x10, 0x00, 0x00, 0xf0, 0x0c, 0x00, 0x00,
  0x8c, 0x09, 0x00, 0x00, 0x10, 0x06, 0x00, 0x00, 0xac, 0x02, 0x00, 0x00,
  0xf8, 0x01, 0x00, 0x00, 0x3c, 0x01, 0x00, 0x00, 0x80, 0x00, 0x00, 0x00,
  0x04, 0x00, 0x00, 0x00, 0xf2, 0xea, 0xff, 0xff, 0x00, 0x00, 0x00, 0x01,
  0x18, 0x00, 0x00, 0x00, 0x20, 0x00, 0x00, 0x00, 0x3c, 0x00, 0x00, 0x00,
  0x0d, 0x00, 0x00, 0x00, 0x00, 0x00, 0x00, 0x09, 0x50, 0x00, 0x00, 0x00,
  0x02, 0x00, 0x00, 0x00, 0xff, 0xff, 0xff, 0xff, 0x01, 0x00, 0x00, 0x00,
  0xdc, 0xea, 0xff, 0xff, 0x08, 0x00, 0x00, 0x00, 0x10, 0x00, 0x00, 0x00,
  0x01, 0x00, 0x00, 0x00, 0x80, 0xff, 0xff, 0xff, 0xff, 0xff, 0xff, 0xff,
  0x01, 0x00, 0x00, 0x00, 0xdd, 0x28, 0xda, 0x3e, 0x1b, 0x00, 0x00, 0x00,
  0x53, 0x74, 0x61, 0x74, 0x65, 0x66, 0x75, 0x6c, 0x50, 0x61, 0x72, 0x74,
  0x69, 0x74, 0x69, 0x6f, 0x6e, 0x65, 0x64, 0x43, 0x61, 0x6c, 0x6c, 0x5f,
  0x31, 0x3a, 0x30, 0x00, 0x02, 0x00, 0x00, 0x00, 0x01, 0x00, 0x00, 0x00,
  0x01, 0x00, 0x00, 0x00, 0x6a, 0xeb, 0xff, 0xff, 0x00, 0x00, 0x00, 0x01,
  0x18, 0x00, 0x00, 0x00, 0x20, 0x00, 0x00, 0x00, 0x3c, 0x00, 0x00, 0x00,
  0x0c, 0x00, 0x00, 0x00, 0x00, 0x00, 0x00, 0x09, 0x90, 0x00, 0x00, 0x00,
  0x02, 0x00, 0x00, 0x00, 0xff, 0xff, 0xff, 0xff, 0x20, 0x00, 0x00, 0x00,
  0x54, 0xeb, 0xff, 0xff, 0x08, 0x00, 0x00, 0x00, 0x10, 0x00, 0x00, 0x00,
  0x01, 0x00, 0x00, 0x00, 0x80, 0xff, 0xff, 0xff, 0xff, 0xff, 0xff, 0xff,
  0x01, 0x00, 0x00, 0x00, 0xf2, 0x8e, 0xd8, 0x3e, 0x58, 0x00, 0x00, 0x00,
  0x73, 0x65, 0x71, 0x75, 0x65, 0x6e, 0x74, 0x69, 0x61, 0x6c, 0x5f, 0x31,
  0x2f, 0x64, 0x65, 0x6e, 0x73, 0x65, 0x5f, 0x32, 0x5f, 0x31, 0x2f, 0x4d,
  0x61, 0x74, 0x4d, 0x75, 0x6c, 0x3b, 0x73, 0x65, 0x71, 0x75, 0x65, 0x6e,
  0x74, 0x69, 0x61, 0x6c, 0x5f, 0x31, 0x2f, 0x64, 0x65, 0x6e, 0x73, 0x65,
  0x5f, 0x32, 0x5f, 0x31, 0x2f, 0x52, 0x65, 0x6c, 0x75, 0x3b, 0x73, 0x65,
  0x71, 0x75, 0x65, 0x6e, 0x74, 0x69, 0x61, 0x6c, 0x5f, 0x31, 0x2f, 0x64,
  0x65, 0x6e, 0x73, 0x65, 0x5f, 0x32, 0x5f, 0x31, 0x2f, 0x42, 0x69, 0x61,
  0x73, 0x41, 0x64, 0x64, 0x00, 0x00, 0x00, 0x00, 0x02, 0x00, 0x00, 0x00,
  0x01, 0x00, 0x00, 0x00, 0x20, 0x00, 0x00, 0x00, 0x22, 0xec, 0xff, 0xff,
  0x00, 0x00, 0x00, 0x01, 0x18, 0x00, 0x00, 0x00, 0x20, 0x00, 0x00, 0x00,
  0x3c, 0x00, 0x00, 0x00, 0x0b, 0x00, 0x00, 0x00, 0x00, 0x00, 0x00, 0x09,
  0x90, 0x00, 0x00, 0x00, 0x02, 0x00, 0x00, 0x00, 0xff, 0xff, 0xff, 0xff,
  0x40, 0x00, 0x00, 0x00, 0x0c, 0xec, 0xff, 0xff, 0x08, 0x00, 0x00, 0x00,
  0x10, 0x00, 0x00, 0x00, 0x01, 0x00, 0x00, 0x00, 0x80, 0xff, 0xff, 0xff,
  0xff, 0xff, 0xff, 0xff, 0x01, 0x00, 0x00, 0x00, 0x93, 0x4f, 0x2a, 0x3f,
  0x58, 0x00, 0x00, 0x00, 0x73, 0x65, 0x71, 0x75, 0x65, 0x6e, 0x74, 0x69,
  0x61, 0x6c, 0x5f, 0x31, 0x2f, 0x64, 0x65, 0x6e, 0x73, 0x65, 0x5f, 0x31,
  0x5f, 0x32, 0x2f, 0x4d, 0x61, 0x74, 0x4d, 0x75, 0x6c, 0x3b, 0x73, 0x65,
  0x71, 0x75, 0x65, 0x6e, 0x74, 0x69, 0x61, 0x6c, 0x5f, 0x31, 0x2f, 0x64,
  0x65, 0x6e, 0x73, 0x65, 0x5f, 0x31, 0x5f, 0x32, 0x2f, 0x52, 0x65, 0x6c,
  0x75, 0x3b, 0x73, 0x65, 0x71, 0x75, 0x65, 0x6e, 0x74, 0x69, 0x61, 0x6c,
  0x5f, 0x31, 0x2f, 0x64, 0x65, 0x6e, 0x73, 0x65, 0x5f, 0x31, 0x5f, 0x32,
  0x2f, 0x42, 0x69, 0x61, 0x73, 0x41, 0x64, 0x64, 0x00, 0x00, 0x00, 0x00,
  0x02, 0x00, 0x00, 0x00, 0x01, 0x00, 0x00, 0x00, 0x40, 0x00, 0x00, 0x00,
  0xda, 0xec, 0xff, 0xff, 0x00, 0x00, 0x00, 0x01, 0x18, 0x00, 0x00, 0x00,
  0x20, 0x00, 0x00, 0x00, 0x3c, 0x00, 0x00, 0x00, 0x0a, 0x00, 0x00, 0x00,
  0x00, 0x00, 0x00, 0x09, 0x88, 0x00, 0x00, 0x00, 0x02, 0x00, 0x00, 0x00,
  0xff, 0xff, 0xff, 0xff, 0x40, 0x00, 0x00, 0x00, 0xc4, 0xec, 0xff, 0xff,
  0x08, 0x00, 0x00, 0x00, 0x10, 0x00, 0x00, 0x00, 0x01, 0x00, 0x00, 0x00,
  0x80, 0xff, 0xff, 0xff, 0xff, 0xff, 0xff, 0xff, 0x01, 0x00, 0x00, 0x00,
  0xed, 0x2f, 0x20, 0x40, 0x52, 0x00, 0x00, 0x00, 0x73, 0x65, 0x71, 0x75,
  0x65, 0x6e, 0x74, 0x69, 0x61, 0x6c, 0x5f, 0x31, 0x2f, 0x64, 0x65, 0x6e,
  0x73, 0x65, 0x5f, 0x31, 0x2f, 0x4d, 0x61, 0x74, 0x4d, 0x75, 0x6c, 0x3b,
  0x73, 0x65, 0x71, 0x75, 0x65, 0x6e, 0x74, 0x69, 0x61, 0x6c, 0x5f, 0x31,
  0x2f, 0x64, 0x65, 0x6e, 0x73, 0x65, 0x5f, 0x31, 0x2f, 0x52, 0x65, 0x6c,
  0x75, 0x3b, 0x73, 0x65, 0x71, 0x75, 0x65, 0x6e, 0x74, 0x69, 0x61, 0x6c,
  0x5f, 0x31, 0x2f, 0x64, 0x65, 0x6e, 0x73, 0x65, 0x5f, 0x31, 0x2f, 0x42,
  0x69, 0x61, 0x73, 0x41, 0x64, 0x64, 0x00, 0x00, 0x02, 0x00, 0x00, 0x00,
  0x01, 0x00, 0x00, 0x00, 0x40, 0x00, 0x00, 0x00, 0x06, 0xee, 0xff, 0xff,
  0x00, 0x00, 0x00, 0x01, 0x14, 0x00, 0x00, 0x00, 0x28, 0x03, 0x00, 0x00,
  0x09, 0x00, 0x00, 0x00, 0x00, 0x00, 0x00, 0x09, 0x3c, 0x03, 0x00, 0x00,
  0x64, 0xed, 0xff, 0xff, 0x08, 0x00, 0x00, 0x00, 0x0c, 0x02, 0x00, 0x00,
  0x40, 0x00, 0x00, 0x00, 0x00, 0x00, 0x00, 0x00, 0x00, 0x00, 0x00, 0x00,
  0x00, 0x00, 0x00, 0x00, 0x00, 0x00, 0x00, 0x00, 0x00, 0x00, 0x00, 0x00,
  0x00, 0x00, 0x00, 0x00, 0x00, 0x00, 0x00, 0x00, 0x00, 0x00, 0x00, 0x00,
  0x00, 0x00, 0x00, 0x00, 0x00, 0x00, 0x00, 0x00, 0x00, 0x00, 0x00, 0x00,
  0x00, 0x00, 0x00, 0x00, 0x00, 0x00, 0x00, 0x00, 0x00, 0x00, 0x00, 0x00,
  0x00, 0x00, 0x00, 0x00, 0x00, 0x00, 0x00, 0x00, 0x00, 0x00, 0x00, 0x00,
  0x00, 0x00, 0x00, 0x00, 0x00, 0x00, 0x00, 0x00, 0x00, 0x00, 0x00, 0x00,
  0x00, 0x00, 0x00, 0x00, 0x00, 0x00, 0x00, 0x00, 0x00, 0x00, 0x00, 0x00,
  0x00, 0x00, 0x00, 0x00, 0x00, 0x00, 0x00, 0x00, 0x00, 0x00, 0x00, 0x00,
  0x00, 0x00, 0x00, 0x00, 0x00, 0x00, 0x00, 0x00, 0x00, 0x00, 0x00, 0x00,
  0x00, 0x00, 0x00, 0x00, 0x00, 0x00, 0x00, 0x00, 0x00, 0x00, 0x00, 0x00,
  0x00, 0x00, 0x00, 0x00, 0x00, 0x00, 0x00, 0x00, 0x00, 0x00, 0x00, 0x00,
  0x00, 0x00, 0x00, 0x00, 0x00, 0x00, 0x00, 0x00, 0x00, 0x00, 0x00, 0x00,
  0x00, 0x00, 0x00, 0x00, 0x00, 0x00, 0x00, 0x00, 0x00, 0x00, 0x00, 0x00,
  0x00, 0x00, 0x00, 0x00, 0x00, 0x00, 0x00, 0x00, 0x00, 0x00, 0x00, 0x00,
  0x00, 0x00, 0x00, 0x00, 0x00, 0x00, 0x00, 0x00, 0x00, 0x00, 0x00, 0x00,
  0x00, 0x00, 0x00, 0x00, 0x00, 0x00, 0x00, 0x00, 0x00, 0x00, 0x00, 0x00,
  0x00, 0x00, 0x00, 0x00, 0x00, 0x00, 0x00, 0x00, 0x00, 0x00, 0x00, 0x00,
  0x00, 0x00, 0x00, 0x00, 0x00, 0x00, 0x00, 0x00, 0x00, 0x00, 0x00, 0x00,
  0x00, 0x00, 0x00, 0x00, 0x00, 0x00, 0x00, 0x00, 0x00, 0x00, 0x00, 0x00,
  0x00, 0x00, 0x00, 0x00, 0x00, 0x00, 0x00, 0x00, 0x00, 0x00, 0x00, 0x00,
  0x00, 0x00, 0x00, 0x00, 0x00, 0x00, 0x00, 0x00, 0x00, 0x00, 0x00, 0x00,
  0x00, 0x00, 0x00, 0x00, 0x00, 0x00, 0x00, 0x00, 0x00, 0x00, 0x00, 0x00,
  0x00, 0x00, 0x00, 0x00, 0x00, 0x00, 0x00, 0x00, 0x00, 0x00, 0x00, 0x00,
  0x00, 0x00, 0x00, 0x00, 0x00, 0x00, 0x00, 0x00, 0x00, 0x00, 0x00, 0x00,
  0x00, 0x00, 0x00, 0x00, 0x00, 0x00, 0x00, 0x00, 0x00, 0x00, 0x00, 0x00,
  0x00, 0x00, 0x00, 0x00, 0x00, 0x00, 0x00, 0x00, 0x00, 0x00, 0x00, 0x00,
  0x00, 0x00, 0x00, 0x00, 0x00, 0x00, 0x00, 0x00, 0x00, 0x00, 0x00, 0x00,
  0x00, 0x00, 0x00, 0x00, 0x00, 0x00, 0x00, 0x00, 0x00, 0x00, 0x00, 0x00,
  0x00, 0x00, 0x00, 0x00, 0x00, 0x00, 0x00, 0x00, 0x00, 0x00, 0x00, 0x00,
  0x00, 0x00, 0x00, 0x00, 0x00, 0x00, 0x00, 0x00, 0x00, 0x00, 0x00, 0x00,
  0x00, 0x00, 0x00, 0x00, 0x00, 0x00, 0x00, 0x00, 0x00, 0x00, 0x00, 0x00,
  0x00, 0x00, 0x00, 0x00, 0x00, 0x00, 0x00, 0x00, 0x00, 0x00, 0x00, 0x00,
  0x00, 0x00, 0x00, 0x00, 0x00, 0x00, 0x00, 0x00, 0x00, 0x00, 0x00, 0x00,
  0x00, 0x00, 0x00, 0x00, 0x00, 0x00, 0x00, 0x00, 0x00, 0x00, 0x00, 0x00,
  0x00, 0x00, 0x00, 0x00, 0x00, 0x00, 0x00, 0x00, 0x00, 0x00, 0x00, 0x00,
  0x00, 0x00, 0x00, 0x00, 0x00, 0x00, 0x00, 0x00, 0x00, 0x00, 0x00, 0x00,
  0x00, 0x00, 0x00, 0x00, 0x00, 0x00, 0x00, 0x00, 0x00, 0x00, 0x00, 0x00,
  0x00, 0x00, 0x00, 0x00, 0x00, 0x00, 0x00, 0x00, 0x00, 0x00, 0x00, 0x00,
  0x00, 0x00, 0x00, 0x00, 0x00, 0x00, 0x00, 0x00, 0x00, 0x00, 0x00, 0x00,
  0x00, 0x00, 0x00, 0x00, 0x00, 0x00, 0x00, 0x00, 0x00, 0x00, 0x00, 0x00,
  0x00, 0x00, 0x00, 0x00, 0x00, 0x00, 0x00, 0x00, 0x00, 0x00, 0x00, 0x00,
  0x00, 0x00, 0x00, 0x00, 0x00, 0x00, 0x00, 0x00, 0x00, 0x00, 0x00, 0x00,
  0x00, 0x00, 0x00, 0x00, 0x40, 0x00, 0x00, 0x00, 0xff, 0x13, 0x14, 0x3b,
  0x4b, 0x55, 0xbd, 0x3a, 0xed, 0x6a, 0xc1, 0x3a, 0x52, 0x9e, 0xf7, 0x3a,
  0x8d, 0x65, 0xff, 0x3a, 0xfc, 0x4e, 0x0b, 0x3b, 0x9b, 0x99, 0xf7, 0x3a,
  0x91, 0x7b, 0xa0, 0x3a, 0x14, 0x9e, 0xff, 0x3a, 0x8b, 0x0b, 0xdd, 0x3a,
  0x00, 0x69, 0x07, 0x3b, 0x7f, 0xcd, 0x06, 0x3b, 0x71, 0xfb, 0xbd, 0x3a,
  0x1c, 0x42, 0x9f, 0x3a, 0xca, 0x9f, 0x01, 0x3b, 0xed, 0x71, 0x0e, 0x3b,
  0xcc, 0xc8, 0x71, 0x3a, 0x3c, 0xa0, 0x02, 0x3b, 0x1e, 0x0a, 0x0e, 0x3b,
  0xb0, 0x1f, 0xfa, 0x3a, 0x6a, 0xe7, 0x4d, 0x3b, 0x2a, 0xbe, 0x28, 0x3b,
  0xac, 0x2d, 0xf4, 0x3a, 0x3d, 0xe0, 0x11, 0x3b, 0xe6, 0xd1, 0x09, 0x3b,
  0x8a, 0xe6, 0x0f, 0x3b, 0xee, 0x62, 0x11, 0x3b, 0xb4, 0x32, 0x04, 0x3b,
  0xb1, 0xec, 0x14, 0x3b, 0x57, 0x85, 0xfc, 0x3a, 0x9b, 0x83, 0x0b, 0x3b,
  0x89, 0x83, 0xfd, 0x3a, 0xa1, 0x40, 0x16, 0x3b, 0x90, 0xb4, 0xef, 0x3a,
  0xa8, 0x13, 0xfa, 0x3a, 0x90, 0xdf, 0xf9, 0x3a, 0x44, 0x65, 0xe3, 0x3a,
  0x8d, 0x9e, 0xc4, 0x3a, 0x41, 0x4c, 0x87, 0x3a, 0x7d, 0x1c, 0xb1, 0x3a,
  0x2e, 0x2b, 0x17, 0x3b, 0xff, 0x4d, 0xfa, 0x3a, 0x9c, 0x53, 0xb7, 0x3a,
  0x0e, 0xf5, 0xa1, 0x3a, 0xf2, 0x84, 0xb8, 0x3a, 0xe2, 0xb3, 0x5e, 0x3a,
  0xf0, 0xd5, 0xdf, 0x3a, 0x73, 0x66, 0x15, 0x3b, 0xf9, 0x66, 0x29, 0x3b,
  0xb2, 0xf9, 0x0d, 0x3b, 0x8a, 0xc6, 0xe3, 0x3a, 0xdd, 0x33, 0x14, 0x3b,
  0x0d, 0x4e, 0x12, 0x3b, 0xce, 0x08, 0xf3, 0x3a, 0x78, 0x4f, 0xda, 0x3a,
  0xa2, 0x6a, 0xee, 0x3a, 0x5d, 0x61, 0xd9, 0x3a, 0x8b, 0xd5, 0x10, 0x3a,
  0x94, 0xa3, 0x30, 0x3b, 0xad, 0x7f, 0xf4, 0x3a, 0xb5, 0x39, 0xd6, 0x3a,
  0xaf, 0x51, 0xa6, 0x3a, 0x73, 0xdd, 0x0d, 0x3b, 0xa0, 0x3d, 0x06, 0x3b,
  0x1b, 0x00, 0x00, 0x00, 0x73, 0x65, 0x71, 0x75, 0x65, 0x6e, 0x74, 0x69,
  0x61, 0x6c, 0x5f, 0x31, 0x2f, 0x64, 0x65, 0x6e, 0x73, 0x65, 0x5f, 0x31,
  0x2f, 0x4d, 0x61, 0x74, 0x4d, 0x75, 0x6c, 0x00, 0x02, 0x00, 0x00, 0x00,
  0x40, 0x00, 0x00, 0x00, 0x04, 0x00, 0x00, 0x00, 0x66, 0xf1, 0xff, 0xff,
  0x00, 0x00, 0x00, 0x01, 0x14, 0x00, 0x00, 0x00, 0x28, 0x03, 0x00, 0x00,
  0x08, 0x00, 0x00, 0x00, 0x00, 0x00, 0x00, 0x02, 0x58, 0x03, 0x00, 0x00,
  0xc4, 0xf0, 0xff, 0xff, 0x08, 0x00, 0x00, 0x00, 0x0c, 0x02, 0x00, 0x00,
  0x40, 0x00, 0x00, 0x00, 0x00, 0x00, 0x00, 0x00, 0x00, 0x00, 0x00, 0x00,
  0x00, 0x00, 0x00, 0x00, 0x00, 0x00, 0x00, 0x00, 0x00, 0x00, 0x00, 0x00,
  0x00, 0x00, 0x00, 0x00, 0x00, 0x00, 0x00, 0x00, 0x00, 0x00, 0x00, 0x00,
  0x00, 0x00, 0x00, 0x00, 0x00, 0x00, 0x00, 0x00, 0x00, 0x00, 0x00, 0x00,
  0x00, 0x00, 0x00, 0x00, 0x00, 0x00, 0x00, 0x00, 0x00, 0x00, 0x00, 0x00,
  0x00, 0x00, 0x00, 0x00, 0x00, 0x00, 0x00, 0x00, 0x00, 0x00, 0x00, 0x00,
  0x00, 0x00, 0x00, 0x00, 0x00, 0x00, 0x00, 0x00, 0x00, 0x00, 0x00, 0x00,
  0x00, 0x00, 0x00, 0x00, 0x00, 0x00, 0x00, 0x00, 0x00, 0x00, 0x00, 0x00,
  0x00, 0x00, 0x00, 0x00, 0x00, 0x00, 0x00, 0x00, 0x00, 0x00, 0x00, 0x00,
  0x00, 0x00, 0x00, 0x00, 0x00, 0x00, 0x00, 0x00, 0x00, 0x00, 0x00, 0x00,
  0x00, 0x00, 0x00, 0x00, 0x00, 0x00, 0x00, 0x00, 0x00, 0x00, 0x00, 0x00,
  0x00, 0x00, 0x00, 0x00, 0x00, 0x00, 0x00, 0x00, 0x00, 0x00, 0x00, 0x00,
  0x00, 0x00, 0x00, 0x00, 0x00, 0x00, 0x00, 0x00, 0x00, 0x00, 0x00, 0x00,
  0x00, 0x00, 0x00, 0x00, 0x00, 0x00, 0x00, 0x00, 0x00, 0x00, 0x00, 0x00,
  0x00, 0x00, 0x00, 0x00, 0x00, 0x00, 0x00, 0x00, 0x00, 0x00, 0x00, 0x00,
  0x00, 0x00, 0x00, 0x00, 0x00, 0x00, 0x00, 0x00, 0x00, 0x00, 0x00, 0x00,
  0x00, 0x00, 0x00, 0x00, 0x00, 0x00, 0x00, 0x00, 0x00, 0x00, 0x00, 0x00,
  0x00, 0x00, 0x00, 0x00, 0x00, 0x00, 0x00, 0x00, 0x00, 0x00, 0x00, 0x00,
  0x00, 0x00, 0x00, 0x00, 0x00, 0x00, 0x00, 0x00, 0x00, 0x00, 0x00, 0x00,
  0x00, 0x00, 0x00, 0x00, 0x00, 0x00, 0x00, 0x00, 0x00, 0x00, 0x00, 0x00,
  0x00, 0x00, 0x00, 0x00, 0x00, 0x00, 0x00, 0x00, 0x00, 0x00, 0x00, 0x00,
  0x00, 0x00, 0x00, 0x00, 0x00, 0x00, 0x00, 0x00, 0x00, 0x00, 0x00, 0x00,
  0x00, 0x00, 0x00, 0x00, 0x00, 0x00, 0x00, 0x00, 0x00, 0x00, 0x00, 0x00,
  0x00, 0x00, 0x00, 0x00, 0x00, 0x00, 0x00, 0x00, 0x00, 0x00, 0x00, 0x00,
  0x00, 0x00, 0x00, 0x00, 0x00, 0x00, 0x00, 0x00, 0x00, 0x00, 0x00, 0x00,
  0x00, 0x00, 0x00, 0x00, 0x00, 0x00, 0x00, 0x00, 0x00, 0x00, 0x00, 0x00,
  0x00, 0x00, 0x00, 0x00, 0x00, 0x00, 0x00, 0x00, 0x00, 0x00, 0x00, 0x00,
  0x00, 0x00, 0x00, 0x00, 0x00, 0x00, 0x00, 0x00, 0x00, 0x00, 0x00, 0x00,
  0x00, 0x00, 0x00, 0x00, 0x00, 0x00, 0x00, 0x00, 0x00, 0x00, 0x00, 0x00,
  0x00, 0x00, 0x00, 0x00, 0x00, 0x00, 0x00, 0x00, 0x00, 0x00, 0x00, 0x00,
  0x00, 0x00, 0x00, 0x00, 0x00, 0x00, 0x00, 0x00, 0x00, 0x00, 0x00, 0x00,
  0x00, 0x00, 0x00, 0x00, 0x00, 0x00, 0x00, 0x00, 0x00, 0x00, 0x00, 0x00,
  0x00, 0x00, 0x00, 0x00, 0x00, 0x00, 0x00, 0x00, 0x00, 0x00, 0x00, 0x00,
  0x00, 0x00, 0x00, 0x00, 0x00, 0x00, 0x00, 0x00, 0x00, 0x00, 0x00, 0x00,
  0x00, 0x00, 0x00, 0x00, 0x00, 0x00, 0x00, 0x00, 0x00, 0x00, 0x00, 0x00,
  0x00, 0x00, 0x00, 0x00, 0x00, 0x00, 0x00, 0x00, 0x00, 0x00, 0x00, 0x00,
  0x00, 0x00, 0x00, 0x00, 0x00, 0x00, 0x00, 0x00, 0x00, 0x00, 0x00, 0x00,
  0x00, 0x00, 0x00, 0x00, 0x00, 0x00, 0x00, 0x00, 0x00, 0x00, 0x00, 0x00,
  0x00, 0x00, 0x00, 0x00, 0x00, 0x00, 0x00, 0x00, 0x00, 0x00, 0x00, 0x00,
  0x00, 0x00, 0x00, 0x00, 0x00, 0x00, 0x00, 0x00, 0x00, 0x00, 0x00, 0x00,
  0x00, 0x00, 0x00, 0x00, 0x00, 0x00, 0x00, 0x00, 0x00, 0x00, 0x00, 0x00,
  0x00, 0x00, 0x00, 0x00, 0x00, 0x00, 0x00, 0x00, 0x00, 0x00, 0x00, 0x00,
  0x00, 0x00, 0x00, 0x00, 0x00, 0x00, 0x00, 0x00, 0x00, 0x00, 0x00, 0x00,
  0x00, 0x00, 0x00, 0x00, 0x40, 0x00, 0x00, 0x00, 0xb4, 0x2c, 0x11, 0x3c,
  0xea, 0x9e, 0xb9, 0x3b, 0x0c, 0xa0, 0xbd, 0x3b, 0x5f, 0xc3, 0xf2, 0x3b,
  0x8f, 0x63, 0xfa, 0x3b, 0xb6, 0x93, 0x08, 0x3c, 0xc0, 0xbe, 0xf2, 0x3b,
  0x02, 0x56, 0x9d, 0x3b, 0xfb, 0x9a, 0xfa, 0x3b, 0xfc, 0xb5, 0xd8, 0x3b,
  0x4b, 0xc1, 0x04, 0x3c, 0xd7, 0x28, 0x04, 0x3c, 0xce, 0x41, 0xba, 0x3b,
  0xb2, 0x22, 0x9c, 0x3b, 0x41, 0x2a, 0xfe, 0x3b, 0xe8, 0xa6, 0x0b, 0x3c,
  0x22, 0x0b, 0x6d, 0x3b, 0x8b, 0x10, 0x00, 0x3c, 0x22, 0x41, 0x0b, 0x3c,
  0x2a, 0x38, 0xf5, 0x3b, 0xdb, 0xdd, 0x49, 0x3c, 0x24, 0x6f, 0x25, 0x3c,
  0xfe, 0x63, 0xef, 0x3b, 0x00, 0x04, 0x0f, 0x3c, 0x19, 0x1e, 0x07, 0x3c,
  0x37, 0x14, 0x0d, 0x3c, 0x26, 0x89, 0x0e, 0x3c, 0x1f, 0x9b, 0x01, 0x3c,
  0x26, 0x01, 0x12, 0x3c, 0xc9, 0x91, 0xf7, 0x3b, 0x4d, 0xc7, 0x08, 0x3c,
  0xff, 0x8a, 0xf8, 0x3b, 0x6c, 0x4e, 0x13, 0x3c, 0x56, 0x01, 0xeb, 0x3b,
  0x5e, 0x2c, 0xf5, 0x3b, 0x4c, 0xf9, 0xf4, 0x3b, 0xd4, 0xef, 0xde, 0x3b,
  0x99, 0xc3, 0xc0, 0x3b, 0x1d, 0xa5, 0x84, 0x3b, 0x76, 0xa3, 0xad, 0x3b,
  0x5f, 0x34, 0x14, 0x3c, 0x91, 0x65, 0xf5, 0x3b, 0x62, 0xbb, 0xb3, 0x3b,
  0x18, 0xc8, 0x9e, 0x3b, 0xbb, 0xe6, 0xb4, 0x3b, 0x01, 0x56, 0x5a, 0x3b,
  0x5f, 0x72, 0xdb, 0x3b, 0x85, 0x78, 0x12, 0x3c, 0xa4, 0x14, 0x26, 0x3c,
  0x09, 0x31, 0x0b, 0x3c, 0x32, 0x4f, 0xdf, 0x3b, 0xf2, 0x4b, 0x11, 0x3c,
  0xa8, 0x6f, 0x0f, 0x3c, 0xde, 0x44, 0xee, 0x3b, 0xa3, 0x07, 0xd6, 0x3b,
  0xe0, 0xbd, 0xe9, 0x3b, 0x33, 0x1e, 0xd5, 0x3b, 0x88, 0xfe, 0x0d, 0x3b,
  0xeb, 0x2c, 0x2d, 0x3c, 0x63, 0xb4, 0xef, 0x3b, 0x61, 0x06, 0xd2, 0x3b,
  0xd4, 0x0e, 0xa3, 0x3b, 0x58, 0x15, 0x0b, 0x3c, 0xca, 0x9b, 0x03, 0x3c,
  0x36, 0x00, 0x00, 0x00, 0x73, 0x65, 0x71, 0x75, 0x65, 0x6e, 0x74, 0x69,
  0x61, 0x6c, 0x5f, 0x31, 0x2f, 0x64, 0x65, 0x6e, 0x73, 0x65, 0x5f, 0x31,
  0x2f, 0x52, 0x65, 0x6c, 0x75, 0x3b, 0x73, 0x65, 0x71, 0x75, 0x65, 0x6e,
  0x74, 0x69, 0x61, 0x6c, 0x5f, 0x31, 0x2f, 0x64, 0x65, 0x6e, 0x73, 0x65,
  0x5f, 0x31, 0x2f, 0x42, 0x69, 0x61, 0x73, 0x41, 0x64, 0x64, 0x00, 0x00,
  0x01, 0x00, 0x00, 0x00, 0x40, 0x00, 0x00, 0x00, 0xde, 0xf4, 0xff, 0xff,
  0x00, 0x00, 0x00, 0x01, 0x14, 0x00, 0x00, 0x00, 0x24, 0x03, 0x00, 0x00,
  0x07, 0x00, 0x00, 0x00, 0x00, 0x00, 0x00, 0x09, 0x3c, 0x03, 0x00, 0x00,
  0x3c, 0xf4, 0xff, 0xff, 0x08, 0x00, 0x00, 0x00, 0x08, 0x02, 0x00, 0x00,
  0x40, 0x00, 0x00, 0x00, 0x00, 0x00, 0x00, 0x00, 0x00, 0x00, 0x00, 0x00,
  0x00, 0x00, 0x00, 0x00, 0x00, 0x00, 0x00, 0x00, 0x00, 0x00, 0x00, 0x00,
  0x00, 0x00, 0x00, 0x00, 0x00, 0x00, 0x00, 0x00, 0x00, 0x00, 0x00, 0x00,
  0x00, 0x00, 0x00, 0x00, 0x00, 0x00, 0x00, 0x00, 0x00, 0x00, 0x00, 0x00,
  0x00, 0x00, 0x00, 0x00, 0x00, 0x00, 0x00, 0x00, 0x00, 0x00, 0x00, 0x00,
  0x00, 0x00, 0x00, 0x00, 0x00, 0x00, 0x00, 0x00, 0x00, 0x00, 0x00, 0x00,
  0x00, 0x00, 0x00, 0x00, 0x00, 0x00, 0x00, 0x00, 0x00, 0x00, 0x00, 0x00,
  0x00, 0x00, 0x00, 0x00, 0x00, 0x00, 0x00, 0x00, 0x00, 0x00, 0x00, 0x00,
  0x00, 0x00, 0x00, 0x00, 0x00, 0x00, 0x00, 0x00, 0x00, 0x00, 0x00, 0x00,
  0x00, 0x00, 0x00, 0x00, 0x00, 0x00, 0x00, 0x00, 0x00, 0x00, 0x00, 0x00,
  0x00, 0x00, 0x00, 0x00, 0x00, 0x00, 0x00, 0x00, 0x00, 0x00, 0x00, 0x00,
  0x00, 0x00, 0x00, 0x00, 0x00, 0x00, 0x00, 0x00, 0x00, 0x00, 0x00, 0x00,
  0x00, 0x00, 0x00, 0x00, 0x00, 0x00, 0x00, 0x00, 0x00, 0x00, 0x00, 0x00,
  0x00, 0x00, 0x00, 0x00, 0x00, 0x00, 0x00, 0x00, 0x00, 0x00, 0x00, 0x00,
  0x00, 0x00, 0x00, 0x00, 0x00, 0x00, 0x00, 0x00, 0x00, 0x00, 0x00, 0x00,
  0x00, 0x00, 0x00, 0x00, 0x00, 0x00, 0x00, 0x00, 0x00, 0x00, 0x00, 0x00,
  0x00, 0x00, 0x00, 0x00, 0x00, 0x00, 0x00, 0x00, 0x00, 0x00, 0x00, 0x00,
  0x00, 0x00, 0x00, 0x00, 0x00, 0x00, 0x00, 0x00, 0x00, 0x00, 0x00, 0x00,
  0x00, 0x00, 0x00, 0x00, 0x00, 0x00, 0x00, 0x00, 0x00, 0x00, 0x00, 0x00,
  0x00, 0x00, 0x00, 0x00, 0x00, 0x00, 0x00, 0x00, 0x00, 0x00, 0x00, 0x00,
  0x00, 0x00, 0x00, 0x00, 0x00, 0x00, 0x00, 0x00, 0x00, 0x00, 0x00, 0x00,
  0x00, 0x00, 0x00, 0x00, 0x00, 0x00, 0x00, 0x00, 0x00, 0x00, 0x00, 0x00,
  0x00, 0x00, 0x00, 0x00, 0x00, 0x00, 0x00, 0x00, 0x00, 0x00, 0x00, 0x00,
  0x00, 0x00, 0x00, 0x00, 0x00, 0x00, 0x00, 0x00, 0x00, 0x00, 0x00, 0x00,
  0x00, 0x00, 0x00, 0x00, 0x00, 0x00, 0x00, 0x00, 0x00, 0x00, 0x00, 0x00,
  0x00, 0x00, 0x00, 0x00, 0x00, 0x00, 0x00, 0x00, 0x00, 0x00, 0x00, 0x00,
  0x00, 0x00, 0x00, 0x00, 0x00, 0x00, 0x00, 0x00, 0x00, 0x00, 0x00, 0x00,
  0x00, 0x00, 0x00, 0x00, 0x00, 0x00, 0x00, 0x00, 0x00, 0x00, 0x00, 0x00,
  0x00, 0x00, 0x00, 0x00, 0x00, 0x00, 0x00, 0x00, 0x00, 0x00, 0x00, 0x00,
  0x00, 0x00, 0x00, 0x00, 0x00, 0x00, 0x00, 0x00, 0x00, 0x00, 0x00, 0x00,
  0x00, 0x00, 0x00, 0x00, 0x00, 0x00, 0x00, 0x00, 0x00, 0x00, 0x00, 0x00,
  0x00, 0x00, 0x00, 0x00, 0x00, 0x00, 0x00, 0x00, 0x00, 0x00, 0x00, 0x00,
  0x00, 0x00, 0x00, 0x00, 0x00, 0x00, 0x00, 0x00, 0x00, 0x00, 0x00, 0x00,
  0x00, 0x00, 0x00, 0x00, 0x00, 0x00, 0x00, 0x00, 0x00, 0x00, 0x00, 0x00,
  0x00, 0x00, 0x00, 0x00, 0x00, 0x00, 0x00, 0x00, 0x00, 0x00, 0x00, 0x00,
  0x00, 0x00, 0x00, 0x00, 0x00, 0x00, 0x00, 0x00, 0x00, 0x00, 0x00, 0x00,
  0x00, 0x00, 0x00, 0x00, 0x00, 0x00, 0x00, 0x00, 0x00, 0x00, 0x00, 0x00,
  0x00, 0x00, 0x00, 0x00, 0x00, 0x00, 0x00, 0x00, 0x00, 0x00, 0x00, 0x00,
  0x00, 0x00, 0x00, 0x00, 0x00, 0x00, 0x00, 0x00, 0x00, 0x00, 0x00, 0x00,
  0x00, 0x00, 0x00, 0x00, 0x00, 0x00, 0x00, 0x00, 0x00, 0x00, 0x00, 0x00,
  0x00, 0x00, 0x00, 0x00, 0x00, 0x00, 0x00, 0x00, 0x00, 0x00, 0x00, 0x00,
  0x00, 0x00, 0x00, 0x00, 0x00, 0x00, 0x00, 0x00, 0x00, 0x00, 0x00, 0x00,
  0x00, 0x00, 0x00, 0x00, 0x00, 0x00, 0x00, 0x00, 0x00, 0x00, 0x00, 0x00,
  0x40, 0x00, 0x00, 0x00, 0x9e, 0xce, 0x62, 0x3b, 0x44, 0xbf, 0x14, 0x3b,
  0x19, 0x82, 0x5b, 0x3b, 0xcc, 0x4c, 0x72, 0x3b, 0x72, 0xd7, 0x25, 0x3b,
  0x1a, 0x25, 0x02, 0x3b, 0x1a, 0xf0, 0xef, 0x3a, 0x88, 0x88, 0xf4, 0x3a,
  0x21, 0x1a, 0x51, 0x3b, 0xbf, 0x06, 0xac, 0x3b, 0x3e, 0x05, 0xf9, 0x3a,
  0x61, 0x25, 0x22, 0x3b, 0xfa, 0x49, 0xfa, 0x3a, 0x10, 0xb6, 0x0d, 0x3b,
  0x42, 0xd8, 0x12, 0x3b, 0x22, 0x6d, 0xf0, 0x3a, 0x01, 0x0b, 0x05, 0x3b,
  0x03, 0xe8, 0x05, 0x3b, 0xbf, 0xc7, 0xe6, 0x3b, 0xd4, 0x5c, 0x04, 0x3b,
  0x4e, 0x8a, 0x11, 0x3b, 0x10, 0x27, 0x0a, 0x3b, 0x0d, 0x66, 0xe9, 0x3a,
  0x74, 0x1a, 0x03, 0x3b, 0x6c, 0x98, 0xef, 0x3a, 0x3c, 0x52, 0x0b, 0x3b,
  0x51, 0x75, 0x3e, 0x3b, 0x35, 0x73, 0xf4, 0x3a, 0x2f, 0x25, 0xd8, 0x3a,
  0x58, 0x15, 0xdf, 0x3a, 0x1d, 0x47, 0x14, 0x3b, 0xb0, 0x89, 0x84, 0x3b,
  0x43, 0x30, 0xde, 0x3a, 0x23, 0x0a, 0xf6, 0x3a, 0x29, 0xec, 0x81, 0x3b,
  0x10, 0x0d, 0x26, 0x3b, 0xd4, 0xbd, 0x3f, 0x3b, 0x5e, 0x59, 0x17, 0x3b,
  0x33, 0x56, 0xef, 0x3a, 0xc3, 0xdd, 0x2a, 0x3b, 0xb9, 0x29, 0x93, 0x3b,
  0x84, 0x70, 0xf4, 0x3a, 0x4e, 0x5b, 0xda, 0x3a, 0xe6, 0x05, 0xea, 0x3a,
  0x58, 0x2f, 0xdf, 0x3a, 0x06, 0xbb, 0x02, 0x3b, 0x8f, 0x56, 0x95, 0x3b,
  0x0f, 0xa8, 0xbb, 0x3b, 0xc4, 0x4b, 0xe1, 0x3a, 0x9a, 0x8a, 0x47, 0x3b,
  0x2e, 0x69, 0xde, 0x3a, 0xed, 0x19, 0x04, 0x3b, 0xab, 0x0e, 0x32, 0x3b,
  0xa0, 0x2c, 0xde, 0x3a, 0xfb, 0xc7, 0x13, 0x3b, 0x7f, 0x11, 0x93, 0x3b,
  0xdc, 0x4c, 0x9a, 0x3b, 0xa4, 0xca, 0xde, 0x3a, 0x12, 0xa2, 0x9b, 0x3b,
  0x77, 0x80, 0xb0, 0x3b, 0x61, 0xc5, 0xe6, 0x3b, 0x29, 0xf2, 0x17, 0x3b,
  0x12, 0x89, 0xa7, 0x3b, 0xda, 0x40, 0x3e, 0x3b, 0x1d, 0x00, 0x00, 0x00,
  0x73, 0x65, 0x71, 0x75, 0x65, 0x6e, 0x74, 0x69, 0x61, 0x6c, 0x5f, 0x31,
  0x2f, 0x64, 0x65, 0x6e, 0x73, 0x65, 0x5f, 0x31, 0x5f, 0x32, 0x2f, 0x4d,
  0x61, 0x74, 0x4d, 0x75, 0x6c, 0x00, 0x00, 0x00, 0x02, 0x00, 0x00, 0x00,
  0x40, 0x00, 0x00, 0x00, 0x40, 0x00, 0x00, 0x00, 0x3e, 0xf8, 0xff, 0xff,
  0x00, 0x00, 0x00, 0x01, 0x14, 0x00, 0x00, 0x00, 0x24, 0x03, 0x00, 0x00,
  0x06, 0x00, 0x00, 0x00, 0x00, 0x00, 0x00, 0x02, 0x58, 0x03, 0x00, 0x00,
  0x9c, 0xf7, 0xff, 0xff, 0x08, 0x00, 0x00, 0x00, 0x08, 0x02, 0x00, 0x00,
  0x40, 0x00, 0x00, 0x00, 0x00, 0x00, 0x00, 0x00, 0x00, 0x00, 0x00, 0x00,
  0x00, 0x00, 0x00, 0x00, 0x00, 0x00, 0x00, 0x00, 0x00, 0x00, 0x00, 0x00,
  0x00, 0x00, 0x00, 0x00, 0x00, 0x00, 0x00, 0x00, 0x00, 0x00, 0x00, 0x00,
  0x00, 0x00, 0x00, 0x00, 0x00, 0x00, 0x00, 0x00, 0x00, 0x00, 0x00, 0x00,
  0x00, 0x00, 0x00, 0x00, 0x00, 0x00, 0x00, 0x00, 0x00, 0x00, 0x00, 0x00,
  0x00, 0x00, 0x00, 0x00, 0x00, 0x00, 0x00, 0x00, 0x00, 0x00, 0x00, 0x00,
  0x00, 0x00, 0x00, 0x00, 0x00, 0x00, 0x00, 0x00, 0x00, 0x00, 0x00, 0x00,
  0x00, 0x00, 0x00, 0x00, 0x00, 0x00, 0x00, 0x00, 0x00, 0x00, 0x00, 0x00,
  0x00, 0x00, 0x00, 0x00, 0x00, 0x00, 0x00, 0x00, 0x00, 0x00, 0x00, 0x00,
  0x00, 0x00, 0x00, 0x00, 0x00, 0x00, 0x00, 0x00, 0x00, 0x00, 0x00, 0x00,
  0x00, 0x00, 0x00, 0x00, 0x00, 0x00, 0x00, 0x00, 0x00, 0x00, 0x00, 0x00,
  0x00, 0x00, 0x00, 0x00, 0x00, 0x00, 0x00, 0x00, 0x00, 0x00, 0x00, 0x00,
  0x00, 0x00, 0x00, 0x00, 0x00, 0x00, 0x00, 0x00, 0x00, 0x00, 0x00, 0x00,
  0x00, 0x00, 0x00, 0x00, 0x00, 0x00, 0x00, 0x00, 0x00, 0x00, 0x00, 0x00,
  0x00, 0x00, 0x00, 0x00, 0x00, 0x00, 0x00, 0x00, 0x00, 0x00, 0x00, 0x00,
  0x00, 0x00, 0x00, 0x00, 0x00, 0x00, 0x00, 0x00, 0x00, 0x00, 0x00, 0x00,
  0x00, 0x00, 0x00, 0x00, 0x00, 0x00, 0x00, 0x00, 0x00, 0x00, 0x00, 0x00,
  0x00, 0x00, 0x00, 0x00, 0x00, 0x00, 0x00, 0x00, 0x00, 0x00, 0x00, 0x00,
  0x00, 0x00, 0x00, 0x00, 0x00, 0x00, 0x00, 0x00, 0x00, 0x00, 0x00, 0x00,
  0x00, 0x00, 0x00, 0x00, 0x00, 0x00, 0x00, 0x00, 0x00, 0x00, 0x00, 0x00,
  0x00, 0x00, 0x00, 0x00, 0x00, 0x00, 0x00, 0x00, 0x00, 0x00, 0x00, 0x00,
  0x00, 0x00, 0x00, 0x00, 0x00, 0x00, 0x00, 0x00, 0x00, 0x00, 0x00, 0x00,
  0x00, 0x00, 0x00, 0x00, 0x00, 0x00, 0x00, 0x00, 0x00, 0x00, 0x00, 0x00,
  0x00, 0x00, 0x00, 0x00, 0x00, 0x00, 0x00, 0x00, 0x00, 0x00, 0x00, 0x00,
  0x00, 0x00, 0x00, 0x00, 0x00, 0x00, 0x00, 0x00, 0x00, 0x00, 0x00, 0x00,
  0x00, 0x00, 0x00, 0x00, 0x00, 0x00, 0x00, 0x00, 0x00, 0x00, 0x00, 0x00,
  0x00, 0x00, 0x00, 0x00, 0x00, 0x00, 0x00, 0x00, 0x00, 0x00, 0x00, 0x00,
  0x00, 0x00, 0x00, 0x00, 0x00, 0x00, 0x00, 0x00, 0x00, 0x00, 0x00, 0x00,
  0x00, 0x00, 0x00, 0x00, 0x00, 0x00, 0x00, 0x00, 0x00, 0x00, 0x00, 0x00,
  0x00, 0x00, 0x00, 0x00, 0x00, 0x00, 0x00, 0x00, 0x00, 0x00, 0x00, 0x00,
  0x00, 0x00, 0x00, 0x00, 0x00, 0x00, 0x00, 0x00, 0x00, 0x00, 0x00, 0x00,
  0x00, 0x00, 0x00, 0x00, 0x00, 0x00, 0x00, 0x00, 0x00, 0x00, 0x00, 0x00,
  0x00, 0x00, 0x00, 0x00, 0x00, 0x00, 0x00, 0x00, 0x00, 0x00, 0x00, 0x00,
  0x00, 0x00, 0x00, 0x00, 0x00, 0x00, 0x00, 0x00, 0x00, 0x00, 0x00, 0x00,
  0x00, 0x00, 0x00, 0x00, 0x00, 0x00, 0x00, 0x00, 0x00, 0x00, 0x00, 0x00,
  0x00, 0x00, 0x00, 0x00, 0x00, 0x00, 0x00, 0x00, 0x00, 0x00, 0x00, 0x00,
  0x00, 0x00, 0x00, 0x00, 0x00, 0x00, 0x00, 0x00, 0x00, 0x00, 0x00, 0x00,
  0x00, 0x00, 0x00, 0x00, 0x00, 0x00, 0x00, 0x00, 0x00, 0x00, 0x00, 0x00,
  0x00, 0x00, 0x00, 0x00, 0x00, 0x00, 0x00, 0x00, 0x00, 0x00, 0x00, 0x00,
  0x00, 0x00, 0x00, 0x00, 0x00, 0x00, 0x00, 0x00, 0x00, 0x00, 0x00, 0x00,
  0x00, 0x00, 0x00, 0x00, 0x00, 0x00, 0x00, 0x00, 0x00, 0x00, 0x00, 0x00,
  0x00, 0x00, 0x00, 0x00, 0x00, 0x00, 0x00, 0x00, 0x00, 0x00, 0x00, 0x00,
  0x00, 0x00, 0x00, 0x00, 0x00, 0x00, 0x00, 0x00, 0x00, 0x00, 0x00, 0x00,
  0x40, 0x00, 0x00, 0x00, 0x99, 0xeb, 0x0d, 0x3c, 0xc7, 0x26, 0xba, 0x3b,
  0x68, 0x5a, 0x09, 0x3c, 0x5c, 0x9d, 0x17, 0x3c, 0x67, 0x8b, 0xcf, 0x3b,
  0x1b, 0xdf, 0xa2, 0x3b, 0xfb, 0x22, 0x96, 0x3b, 0x1c, 0x03, 0x99, 0x3b,
  0x7a, 0xd7, 0x02, 0x3c, 0xd8, 0x48, 0x57, 0x3c, 0xe5, 0xd1, 0x9b, 0x3b,
  0x6f, 0xeb, 0xca, 0x3b, 0x18, 0x9d, 0x9c, 0x3b, 0xa3, 0x58, 0xb1, 0x3b,
  0x4e, 0xc5, 0xb7, 0x3b, 0x38, 0x71, 0x96, 0x3b, 0x92, 0x7f, 0xa6, 0x3b,
  0x27, 0x94, 0xa7, 0x3b, 0x0c, 0x68, 0x90, 0x3c, 0x98, 0xa5, 0xa5, 0x3b,
  0x60, 0x23, 0xb6, 0x3b, 0x8e, 0xe4, 0xac, 0x3b, 0x7a, 0x0b, 0x92, 0x3b,
  0x27, 0x12, 0xa4, 0x3b, 0x1e, 0xec, 0x95, 0x3b, 0xf5, 0x5a, 0xae, 0x3b,
  0xf5, 0x59, 0xee, 0x3b, 0xc5, 0xf5, 0x98, 0x3b, 0xb4, 0x3f, 0x87, 0x3b,
  0x1a, 0x97, 0x8b, 0x3b, 0x69, 0x90, 0xb9, 0x3b, 0xbc, 0xdd, 0x25, 0x3c,
  0xc2, 0x07, 0x8b, 0x3b, 0x66, 0xf4, 0x99, 0x3b, 0xd9, 0x97, 0x22, 0x3c,
  0x80, 0xce, 0xcf, 0x3b, 0x14, 0xf5, 0xef, 0x3b, 0x61, 0x68, 0xbd, 0x3b,
  0xae, 0xc2, 0x95, 0x3b, 0x2e, 0xd5, 0xd5, 0x3b, 0x41, 0x2b, 0x38, 0x3c,
  0x15, 0xf4, 0x98, 0x3b, 0xf2, 0xa1, 0x88, 0x3b, 0x7f, 0x6f, 0x92, 0x3b,
  0x5f, 0xa7, 0x8b, 0x3b, 0xba, 0x9a, 0xa3, 0x3b, 0x1d, 0xe4, 0x3a, 0x3c,
  0x56, 0xd8, 0x6a, 0x3c, 0x88, 0xf9, 0x8c, 0x3b, 0xf7, 0xb7, 0xf9, 0x3b,
  0x60, 0x2b, 0x8b, 0x3b, 0xde, 0x51, 0xa5, 0x3b, 0x01, 0xd5, 0xde, 0x3b,
  0x7c, 0x05, 0x8b, 0x3b, 0x4f, 0xf1, 0xb8, 0x3b, 0xef, 0x0c, 0x38, 0x3c,
  0xd9, 0x19, 0x41, 0x3c, 0x5c, 0x68, 0x8b, 0x3b, 0xdc, 0xc4, 0x42, 0x3c,
  0xab, 0xe2, 0x5c, 0x3c, 0x91, 0x66, 0x90, 0x3c, 0x98, 0x27, 0xbe, 0x3b,
  0x11, 0xaa, 0x51, 0x3c, 0x4d, 0x18, 0xee, 0x3b, 0x3a, 0x00, 0x00, 0x00,
  0x73, 0x65, 0x71, 0x75, 0x65, 0x6e, 0x74, 0x69, 0x61, 0x6c, 0x5f, 0x31,
  0x2f, 0x64, 0x65, 0x6e, 0x73, 0x65, 0x5f, 0x31, 0x5f, 0x32, 0x2f, 0x52,
  0x65, 0x6c, 0x75, 0x3b, 0x73, 0x65, 0x71, 0x75, 0x65, 0x6e, 0x74, 0x69,
  0x61, 0x6c, 0x5f, 0x31, 0x2f, 0x64, 0x65, 0x6e, 0x73, 0x65, 0x5f, 0x31,
  0x5f, 0x32, 0x2f, 0x42, 0x69, 0x61, 0x73, 0x41, 0x64, 0x64, 0x00, 0x00,
  0x01, 0x00, 0x00, 0x00, 0x40, 0x00, 0x00, 0x00, 0xb6, 0xfb, 0xff, 0xff,
  0x00, 0x00, 0x00, 0x01, 0x14, 0x00, 0x00, 0x00, 0xa4, 0x01, 0x00, 0x00,
  0x05, 0x00, 0x00, 0x00, 0x00, 0x00, 0x00, 0x09, 0xbc, 0x01, 0x00, 0x00,
  0x14, 0xfb, 0xff, 0xff, 0x08, 0x00, 0x00, 0x00, 0x08, 0x01, 0x00, 0x00,
  0x20, 0x00, 0x00, 0x00, 0x00, 0x00, 0x00, 0x00, 0x00, 0x00, 0x00, 0x00,
  0x00, 0x00, 0x00, 0x00, 0x00, 0x00, 0x00, 0x00, 0x00, 0x00, 0x00, 0x00,
  0x00, 0x00, 0x00, 0x00, 0x00, 0x00, 0x00, 0x00, 0x00, 0x00, 0x00, 0x00,
  0x00, 0x00, 0x00, 0x00, 0x00, 0x00, 0x00, 0x00, 0x00, 0x00, 0x00, 0x00,
  0x00, 0x00, 0x00, 0x00, 0x00, 0x00, 0x00, 0x00, 0x00, 0x00, 0x00, 0x00,
  0x00, 0x00, 0x00, 0x00, 0x00, 0x00, 0x00, 0x00, 0x00, 0x00, 0x00, 0x00,
  0x00, 0x00, 0x00, 0x00, 0x00, 0x00, 0x00, 0x00, 0x00, 0x00, 0x00, 0x00,
  0x00, 0x00, 0x00, 0x00, 0x00, 0x00, 0x00, 0x00, 0x00, 0x00, 0x00, 0x00,
  0x00, 0x00, 0x00, 0x00, 0x00, 0x00, 0x00, 0x00, 0x00, 0x00, 0x00, 0x00,
  0x00, 0x00, 0x00, 0x00, 0x00, 0x00, 0x00, 0x00, 0x00, 0x00, 0x00, 0x00,
  0x00, 0x00, 0x00, 0x00, 0x00, 0x00, 0x00, 0x00, 0x00, 0x00, 0x00, 0x00,
  0x00, 0x00, 0x00, 0x00, 0x00, 0x00, 0x00, 0x00, 0x00, 0x00, 0x00, 0x00,
  0x00, 0x00, 0x00, 0x00, 0x00, 0x00, 0x00, 0x00, 0x00, 0x00, 0x00, 0x00,
  0x00, 0x00, 0x00, 0x00, 0x00, 0x00, 0x00, 0x00, 0x00, 0x00, 0x00, 0x00,
  0x00, 0x00, 0x00, 0x00, 0x00, 0x00, 0x00, 0x00, 0x00, 0x00, 0x00, 0x00,
  0x00, 0x00, 0x00, 0x00, 0x00, 0x00, 0x00, 0x00, 0x00, 0x00, 0x00, 0x00,
  0x00, 0x00, 0x00, 0x00, 0x00, 0x00, 0x00, 0x00, 0x00, 0x00, 0x00, 0x00,
  0x00, 0x00, 0x00, 0x00, 0x00, 0x00, 0x00, 0x00, 0x00, 0x00, 0x00, 0x00,
  0x00, 0x00, 0x00, 0x00, 0x00, 0x00, 0x00, 0x00, 0x00, 0x00, 0x00, 0x00,
  0x00, 0x00, 0x00, 0x00, 0x00, 0x00, 0x00, 0x00, 0x00, 0x00, 0x00, 0x00,
  0x00, 0x00, 0x00, 0x00, 0x00, 0x00, 0x00, 0x00, 0x00, 0x00, 0x00, 0x00,
  0x00, 0x00, 0x00, 0x00, 0x00, 0x00, 0x00, 0x00, 0x20, 0x00, 0x00, 0x00,
  0x18, 0x61, 0x07, 0x3b, 0x86, 0xa6, 0x81, 0x3b, 0x0b, 0x03, 0x08, 0x3b,
  0x64, 0xcc, 0x1d, 0x3b, 0x42, 0x87, 0x0b, 0x3b, 0x11, 0x24, 0x13, 0x3b,
  0x35, 0x35, 0x02, 0x3b, 0x97, 0x08, 0x14, 0x3b, 0xf7, 0x85, 0x85, 0x3b,
  0xdc, 0x31, 0x0b, 0x3b, 0x58, 0x49, 0x04, 0x3b, 0x2c, 0x82, 0x07, 0x3b,
  0x12, 0x10, 0x0a, 0x3b, 0xf4, 0x57, 0x00, 0x3b, 0xb1, 0x1b, 0x25, 0x3b,
  0xab, 0x76, 0xe8, 0x3b, 0xe5, 0x00, 0x22, 0x3b, 0x8e, 0x99, 0x7a, 0x3b,
  0xa7, 0xd5, 0x48, 0x3b, 0x99, 0xfd, 0x45, 0x3b, 0x3b, 0x4b, 0x52, 0x3b,
  0xa7, 0x6e, 0x00, 0x3b, 0x4f, 0x1e, 0x2f, 0x3b, 0x22, 0x62, 0x79, 0x3b,
  0x57, 0x0d, 0x6a, 0x3b, 0xe4, 0x7d, 0x40, 0x3b, 0xb5, 0x1b, 0xa0, 0x3b,
  0x0a, 0x25, 0xcc, 0x3b, 0x92, 0x2e, 0x1b, 0x3b, 0xd4, 0x59, 0xe0, 0x3b,
  0xa6, 0x77, 0xcd, 0x3b, 0x13, 0xf9, 0x03, 0x3b, 0x1d, 0x00, 0x00, 0x00,
  0x73, 0x65, 0x71, 0x75, 0x65, 0x6e, 0x74, 0x69, 0x61, 0x6c, 0x5f, 0x31,
  0x2f, 0x64, 0x65, 0x6e, 0x73, 0x65, 0x5f, 0x32, 0x5f, 0x31, 0x2f, 0x4d,
  0x61, 0x74, 0x4d, 0x75, 0x6c, 0x00, 0x00, 0x00, 0x02, 0x00, 0x00, 0x00,
  0x20, 0x00, 0x00, 0x00, 0x40, 0x00, 0x00, 0x00, 0x96, 0xfd, 0xff, 0xff,
  0x00, 0x00, 0x00, 0x01, 0x14, 0x00, 0x00, 0x00, 0xa4, 0x01, 0x00, 0x00,
  0x04, 0x00, 0x00, 0x00, 0x00, 0x00, 0x00, 0x02, 0xd8, 0x01, 0x00, 0x00,
  0xf4, 0xfc, 0xff, 0xff, 0x08, 0x00, 0x00, 0x00, 0x08, 0x01, 0x00, 0x00,
  0x20, 0x00, 0x00, 0x00, 0x00, 0x00, 0x00, 0x00, 0x00, 0x00, 0x00, 0x00,
  0x00, 0x00, 0x00, 0x00, 0x00, 0x00, 0x00, 0x00, 0x00, 0x00, 0x00, 0x00,
  0x00, 0x00, 0x00, 0x00, 0x00, 0x00, 0x00, 0x00, 0x00, 0x00, 0x00, 0x00,
  0x00, 0x00, 0x00, 0x00, 0x00, 0x00, 0x00, 0x00, 0x00, 0x00, 0x00, 0x00,
  0x00, 0x00, 0x00, 0x00, 0x00, 0x00, 0x00, 0x00, 0x00, 0x00, 0x00, 0x00,
  0x00, 0x00, 0x00, 0x00, 0x00, 0x00, 0x00, 0x00, 0x00, 0x00, 0x00, 0x00,
  0x00, 0x00, 0x00, 0x00, 0x00, 0x00, 0x00, 0x00, 0x00, 0x00, 0x00, 0x00,
  0x00, 0x00, 0x00, 0x00, 0x00, 0x00, 0x00, 0x00, 0x00, 0x00, 0x00, 0x00,
  0x00, 0x00, 0x00, 0x00, 0x00, 0x00, 0x00, 0x00, 0x00, 0x00, 0x00, 0x00,
  0x00, 0x00, 0x00, 0x00, 0x00, 0x00, 0x00, 0x00, 0x00, 0x00, 0x00, 0x00,
  0x00, 0x00, 0x00, 0x00, 0x00, 0x00, 0x00, 0x00, 0x00, 0x00, 0x00, 0x00,
  0x00, 0x00, 0x00, 0x00, 0x00, 0x00, 0x00, 0x00, 0x00, 0x00, 0x00, 0x00,
  0x00, 0x00, 0x00, 0x00, 0x00, 0x00, 0x00, 0x00, 0x00, 0x00, 0x00, 0x00,
  0x00, 0x00, 0x00, 0x00, 0x00, 0x00, 0x00, 0x00, 0x00, 0x00, 0x00, 0x00,
  0x00, 0x00, 0x00, 0x00, 0x00, 0x00, 0x00, 0x00, 0x00, 0x00, 0x00, 0x00,
  0x00, 0x00, 0x00, 0x00, 0x00, 0x00, 0x00, 0x00, 0x00, 0x00, 0x00, 0x00,
  0x00, 0x00, 0x00, 0x00, 0x00, 0x00, 0x00, 0x00, 0x00, 0x00, 0x00, 0x00,
  0x00, 0x00, 0x00, 0x00, 0x00, 0x00, 0x00, 0x00, 0x00, 0x00, 0x00, 0x00,
  0x00, 0x00, 0x00, 0x00, 0x00, 0x00, 0x00, 0x00, 0x00, 0x00, 0x00, 0x00,
  0x00, 0x00, 0x00, 0x00, 0x00, 0x00, 0x00, 0x00, 0x00, 0x00, 0x00, 0x00,
  0x00, 0x00, 0x00, 0x00, 0x00, 0x00, 0x00, 0x00, 0x00, 0x00, 0x00, 0x00,
  0x00, 0x00, 0x00, 0x00, 0x00, 0x00, 0x00, 0x00, 0x20, 0x00, 0x00, 0x00,
  0x1d, 0x21, 0xb4, 0x3a, 0xc4, 0x81, 0x2c, 0x3b, 0x99, 0xf8, 0xb4, 0x3a,
  0x8e, 0xf5, 0xd1, 0x3a, 0x61, 0xa6, 0xb9, 0x3a, 0x60, 0xc7, 0xc3, 0x3a,
  0x9d, 0x3f, 0xad, 0x3a, 0x70, 0xf7, 0xc4, 0x3a, 0xee, 0xa8, 0x31, 0x3b,
  0xc1, 0x34, 0xb9, 0x3a, 0xa6, 0x03, 0xb0, 0x3a, 0x20, 0x4d, 0xb4, 0x3a,
  0x2c, 0xb3, 0xb7, 0x3a, 0x9a, 0xc4, 0xaa, 0x3a, 0x6c, 0xaf, 0xdb, 0x3a,
  0x10, 0xa7, 0x9a, 0x3b, 0xe7, 0x8d, 0xd7, 0x3a, 0xde, 0xb7, 0x26, 0x3b,
  0x4e, 0x9c, 0x05, 0x3b, 0xf3, 0xb7, 0x03, 0x3b, 0x53, 0xe7, 0x0b, 0x3b,
  0xce, 0xe2, 0xaa, 0x3a, 0x1f, 0x01, 0xe9, 0x3a, 0xaf, 0xe8, 0x25, 0x3b,
  0x9c, 0xb5, 0x1b, 0x3b, 0x6f, 0x0f, 0x00, 0x3b, 0x55, 0x08, 0x55, 0x3b,
  0x0d, 0xd0, 0x87, 0x3b, 0x53, 0x7a, 0xce, 0x3a, 0x63, 0x41, 0x95, 0x3b,
  0x52, 0xb1, 0x88, 0x3b, 0xd9, 0x98, 0xaf, 0x3a, 0x3a, 0x00, 0x00, 0x00,
  0x73, 0x65, 0x71, 0x75, 0x65, 0x6e, 0x74, 0x69, 0x61, 0x6c, 0x5f, 0x31,
  0x2f, 0x64, 0x65, 0x6e, 0x73, 0x65, 0x5f, 0x32, 0x5f, 0x31, 0x2f, 0x52,
  0x65, 0x6c, 0x75, 0x3b, 0x73, 0x65, 0x71, 0x75, 0x65, 0x6e, 0x74, 0x69,
  0x61, 0x6c, 0x5f, 0x31, 0x2f, 0x64, 0x65, 0x6e, 0x73, 0x65, 0x5f, 0x32,
  0x5f, 0x31, 0x2f, 0x42, 0x69, 0x61, 0x73, 0x41, 0x64, 0x64, 0x00, 0x00,
  0x01, 0x00, 0x00, 0x00, 0x20, 0x00, 0x00, 0x00, 0x8e, 0xff, 0xff, 0xff,
  0x00, 0x00, 0x00, 0x01, 0x14, 0x00, 0x00, 0x00, 0x34, 0x00, 0x00, 0x00,
  0x03, 0x00, 0x00, 0x00, 0x00, 0x00, 0x00, 0x09, 0x4c, 0x00, 0x00, 0x00,
  0xec, 0xfe, 0xff, 0xff, 0x08, 0x00, 0x00, 0x00, 0x14, 0x00, 0x00, 0x00,
  0x01, 0x00, 0x00, 0x00, 0x00, 0x00, 0x00, 0x00, 0x00, 0x00, 0x00, 0x00,
  0x00, 0x00, 0x00, 0x00, 0x01, 0x00, 0x00, 0x00, 0xb2, 0x26, 0x59, 0x3b,
  0x1d, 0x00, 0x00, 0x00, 0x73, 0x65, 0x71, 0x75, 0x65, 0x6e, 0x74, 0x69,
  0x61, 0x6c, 0x5f, 0x31, 0x2f, 0x64, 0x65, 0x6e, 0x73, 0x65, 0x5f, 0x33,
  0x5f, 0x31, 0x2f, 0x4d, 0x61, 0x74, 0x4d, 0x75, 0x6c, 0x00, 0x00, 0x00,
  0x02, 0x00, 0x00, 0x00, 0x01, 0x00, 0x00, 0x00, 0x20, 0x00, 0x00, 0x00,
  0x00, 0x00, 0x16, 0x00, 0x1c, 0x00, 0x18, 0x00, 0x17, 0x00, 0x10, 0x00,
  0x0c, 0x00, 0x08, 0x00, 0x00, 0x00, 0x00, 0x00, 0x00, 0x00, 0x07, 0x00,
  0x16, 0x00, 0x00, 0x00, 0x00, 0x00, 0x00, 0x01, 0x14, 0x00, 0x00, 0x00,
  0x30, 0x00, 0x00, 0x00, 0x02, 0x00, 0x00, 0x00, 0x00, 0x00, 0x00, 0x02,
  0x44, 0x00, 0x00, 0x00, 0x74, 0xff, 0xff, 0xff, 0x08, 0x00, 0x00, 0x00,
  0x10, 0x00, 0x00, 0x00, 0x01, 0x00, 0x00, 0x00, 0x00, 0x00, 0x00, 0x00,
  0x00, 0x00, 0x00, 0x00, 0x01, 0x00, 0x00, 0x00, 0xe7, 0xb1, 0xb7, 0x3a,
  0x1a, 0x00, 0x00, 0x00, 0x73, 0x65, 0x71, 0x75, 0x65, 0x6e, 0x74, 0x69,
  0x61, 0x6c, 0x5f, 0x31, 0x2f, 0x64, 0x65, 0x6e, 0x73, 0x65, 0x5f, 0x33,
  0x5f, 0x31, 0x2f, 0x41, 0x64, 0x64, 0x00, 0x00, 0x01, 0x00, 0x00, 0x00,
  0x01, 0x00, 0x00, 0x00, 0x00, 0x00, 0x16, 0x00, 0x20, 0x00, 0x1c, 0x00,
  0x1b, 0x00, 0x14, 0x00, 0x10, 0x00, 0x0c, 0x00, 0x00, 0x00, 0x00, 0x00,
  0x08, 0x00, 0x07, 0x00, 0x16, 0x00, 0x00, 0x00, 0x00, 0x00, 0x00, 0x01,
  0x18, 0x00, 0x00, 0x00, 0x2c, 0x00, 0x00, 0x00, 0x4c, 0x00, 0x00, 0x00,
  0x01, 0x00, 0x00, 0x00, 0x00, 0x00, 0x00, 0x09, 0x64, 0x00, 0x00, 0x00,
  0x02, 0x00, 0x00, 0x00, 0xff, 0xff, 0xff, 0xff, 0x04, 0x00, 0x00, 0x00,
  0x0c, 0x00, 0x0c, 0x00, 0x00, 0x00, 0x00, 0x00, 0x08, 0x00, 0x04, 0x00,
  0x0c, 0x00, 0x00, 0x00, 0x08, 0x00, 0x00, 0x00, 0x14, 0x00, 0x00, 0x00,
  0x01, 0x00, 0x00, 0x00, 0x80, 0xff, 0xff, 0xff, 0xff, 0xff, 0xff, 0xff,
  0x00, 0x00, 0x00, 0x00, 0x01, 0x00, 0x00, 0x00, 0xfb, 0xfa, 0x7a, 0x40,
  0x1e, 0x00, 0x00, 0x00, 0x73, 0x65, 0x72, 0x76, 0x69, 0x6e, 0x67, 0x5f,
  0x64, 0x65, 0x66, 0x61, 0x75, 0x6c, 0x74, 0x5f, 0x6b, 0x65, 0x72, 0x61,
  0x73, 0x5f, 0x74, 0x65, 0x6e, 0x73, 0x6f, 0x72, 0x3a, 0x30, 0x00, 0x00,
  0x02, 0x00, 0x00, 0x00, 0x01, 0x00, 0x00, 0x00, 0x04, 0x00, 0x00, 0x00,
  0x01, 0x00, 0x00, 0x00, 0x10, 0x00, 0x00, 0x00, 0x0c, 0x00, 0x10, 0x00,
  0x0f, 0x00, 0x00, 0x00, 0x08, 0x00, 0x04, 0x00, 0x0c, 0x00, 0x00, 0x00,
  0x09, 0x00, 0x00, 0x00, 0x04, 0x00, 0x00, 0x00, 0x00, 0x00, 0x00, 0x09
};
unsigned int motor_ff_controller_int8_io_tflite_len = 13704;
